#include <cstdint>
#include <cstddef>
#include "BufAttributes.h"

static const uint8_t g_kwsModel[] ALIGNMENT_ATTRIBUTE =  {
	0x1c, 0x00, 0x00, 0x00, 0x54, 0x46, 0x4c, 0x33, 0x14, 0x00, 0x20, 0x00, 0x04, 0x00, 0x08, 0x00, 0x0c, 0x00, 0x10, 0x00, 
	0x14, 0x00, 0x00, 0x00, 0x18, 0x00, 0x1c, 0x00, 0x14, 0x00, 0x00, 0x00, 0x03, 0x00, 0x00, 0x00, 0x18, 0x00, 0x00, 0x00, 
	0x38, 0x00, 0x00, 0x00, 0x38, 0x01, 0x00, 0x00, 0x38, 0x00, 0x00, 0x00, 0xe0, 0x00, 0x00, 0x00, 0xd8, 0x00, 0x00, 0x00, 
	0x08, 0x00, 0x00, 0x00, 0xdc, 0x13, 0x00, 0x00, 0x10, 0x13, 0x00, 0x00, 0xb4, 0x11, 0x00, 0x00, 0x0c, 0x10, 0x00, 0x00, 
	0x18, 0x05, 0x00, 0x00, 0x9c, 0x03, 0x00, 0x00, 0xec, 0x02, 0x00, 0x00, 0x64, 0x02, 0x00, 0x00, 0x01, 0x00, 0x00, 0x00, 
	0x24, 0x01, 0x00, 0x00, 0x29, 0x00, 0x00, 0x00, 0x00, 0xb9, 0x00, 0x00, 0xfc, 0xb8, 0x00, 0x00, 0x2c, 0xb8, 0x00, 0x00, 
	0xbc, 0xb7, 0x00, 0x00, 0x44, 0xaa, 0x00, 0x00, 0x54, 0xa5, 0x00, 0x00, 0xec, 0x9e, 0x00, 0x00, 0xd4, 0x99, 0x00, 0x00, 
	0x64, 0x86, 0x00, 0x00, 0x68, 0x81, 0x00, 0x00, 0x10, 0x7b, 0x00, 0x00, 0xf0, 0x75, 0x00, 0x00, 0x84, 0x62, 0x00, 0x00, 
	0x88, 0x5d, 0x00, 0x00, 0x30, 0x57, 0x00, 0x00, 0x10, 0x52, 0x00, 0x00, 0xa4, 0x3e, 0x00, 0x00, 0xa8, 0x39, 0x00, 0x00, 
	0x50, 0x33, 0x00, 0x00, 0x30, 0x2e, 0x00, 0x00, 0xc4, 0x1a, 0x00, 0x00, 0xe0, 0x15, 0x00, 0x00, 0x74, 0x14, 0x00, 0x00, 
	0xe4, 0x13, 0x00, 0x00, 0xa0, 0xb8, 0x00, 0x00, 0x9c, 0xb8, 0x00, 0x00, 0x98, 0xb8, 0x00, 0x00, 0x94, 0xb8, 0x00, 0x00, 
	0x90, 0xb8, 0x00, 0x00, 0x8c, 0xb8, 0x00, 0x00, 0x88, 0xb8, 0x00, 0x00, 0x84, 0xb8, 0x00, 0x00, 0x80, 0xb8, 0x00, 0x00, 
	0x7c, 0xb8, 0x00, 0x00, 0x78, 0xb8, 0x00, 0x00, 0x74, 0xb8, 0x00, 0x00, 0x70, 0xb8, 0x00, 0x00, 0x6c, 0xb8, 0x00, 0x00, 
	0x68, 0xb8, 0x00, 0x00, 0x64, 0xb8, 0x00, 0x00, 0x3c, 0x00, 0x00, 0x00, 0x00, 0x00, 0x00, 0x00, 0x01, 0x00, 0x00, 0x00, 
	0x0c, 0x00, 0x00, 0x00, 0x08, 0x00, 0x0c, 0x00, 0x04, 0x00, 0x08, 0x00, 0x08, 0x00, 0x00, 0x00, 0x08, 0x00, 0x00, 0x00, 
	0x28, 0x00, 0x00, 0x00, 0x13, 0x00, 0x00, 0x00, 0x6d, 0x69, 0x6e, 0x5f, 0x72, 0x75, 0x6e, 0x74, 0x69, 0x6d, 0x65, 0x5f, 
	0x76, 0x65, 0x72, 0x73, 0x69, 0x6f, 0x6e, 0x00, 0xae, 0x48, 0xff, 0xff, 0x04, 0x00, 0x00, 0x00, 0x10, 0x00, 0x00, 0x00, 
	0x31, 0x2e, 0x31, 0x34, 0x2e, 0x30, 0x00, 0x00, 0x00, 0x00, 0x00, 0x00, 0x00, 0x00, 0x00, 0x00, 0x0f, 0x00, 0x00, 0x00, 
	0x4d, 0x4c, 0x49, 0x52, 0x20, 0x43, 0x6f, 0x6e, 0x76, 0x65, 0x72, 0x74, 0x65, 0x64, 0x2e, 0x00, 0x00, 0x00, 0x0e, 0x00, 
	0x18, 0x00, 0x04, 0x00, 0x08, 0x00, 0x0c, 0x00, 0x10, 0x00, 0x14, 0x00, 0x0e, 0x00, 0x00, 0x00, 0x14, 0x00, 0x00, 0x00, 
	0xb0, 0x00, 0x00, 0x00, 0xb4, 0x00, 0x00, 0x00, 0xb8, 0x00, 0x00, 0x00, 0xf8, 0x00, 0x00, 0x00, 0x27, 0x00, 0x00, 0x00, 
	0x84, 0xb7, 0x00, 0x00, 0x24, 0xb7, 0x00, 0x00, 0x9c, 0xb6, 0x00, 0x00, 0x1c, 0xb3, 0x00, 0x00, 0x2c, 0xa5, 0x00, 0x00, 
	0x04, 0xa0, 0x00, 0x00, 0xac, 0x99, 0x00, 0x00, 0x3c, 0x95, 0x00, 0x00, 0x40, 0x81, 0x00, 0x00, 0x28, 0x7c, 0x00, 0x00, 
	0xc8, 0x75, 0x00, 0x00, 0x5c, 0x71, 0x00, 0x00, 0x60, 0x5d, 0x00, 0x00, 0x48, 0x58, 0x00, 0x00, 0xe8, 0x51, 0x00, 0x00, 
	0x7c, 0x4d, 0x00, 0x00, 0x80, 0x39, 0x00, 0x00, 0x68, 0x34, 0x00, 0x00, 0x08, 0x2e, 0x00, 0x00, 0x9c, 0x29, 0x00, 0x00, 
	0xb8, 0x15, 0x00, 0x00, 0x4c, 0x14, 0x00, 0x00, 0xcc, 0x12, 0x00, 0x00, 0x40, 0x12, 0x00, 0x00, 0x60, 0x11, 0x00, 0x00, 
	0x04, 0x10, 0x00, 0x00, 0x5c, 0x0e, 0x00, 0x00, 0xc4, 0x0c, 0x00, 0x00, 0x38, 0x0b, 0x00, 0x00, 0xd4, 0x09, 0x00, 0x00, 
	0x50, 0x08, 0x00, 0x00, 0xec, 0x06, 0x00, 0x00, 0x68, 0x05, 0x00, 0x00, 0x18, 0x04, 0x00, 0x00, 0x4c, 0x03, 0x00, 0x00, 
	0x74, 0x02, 0x00, 0x00, 0xcc, 0x01, 0x00, 0x00, 0x1c, 0x01, 0x00, 0x00, 0x94, 0x00, 0x00, 0x00, 0x01, 0x00, 0x00, 0x00, 
	0x00, 0x00, 0x00, 0x00, 0x01, 0x00, 0x00, 0x00, 0x26, 0x00, 0x00, 0x00, 0x10, 0x00, 0x00, 0x00, 0xa0, 0x11, 0x00, 0x00, 
	0xd8, 0x10, 0x00, 0x00, 0x54, 0x0f, 0x00, 0x00, 0xa4, 0x0d, 0x00, 0x00, 0x24, 0x0c, 0x00, 0x00, 0xa0, 0x0a, 0x00, 0x00, 
	0x40, 0x09, 0x00, 0x00, 0xb8, 0x07, 0x00, 0x00, 0x58, 0x06, 0x00, 0x00, 0xd0, 0x04, 0x00, 0x00, 0x84, 0x03, 0x00, 0x00, 
	0x98, 0x02, 0x00, 0x00, 0xfc, 0x01, 0x00, 0x00, 0x34, 0x01, 0x00, 0x00, 0x88, 0x00, 0x00, 0x00, 0x10, 0x00, 0x00, 0x00, 
	0x04, 0x00, 0x00, 0x00, 0x6d, 0x61, 0x69, 0x6e, 0x00, 0x00, 0x00, 0x00, 0x7a, 0xef, 0xff, 0xff, 0x07, 0x00, 0x00, 0x00, 
	0x10, 0x00, 0x00, 0x00, 0x04, 0x00, 0x00, 0x00, 0x01, 0x00, 0x00, 0x00, 0x26, 0x00, 0x00, 0x00, 0x01, 0x00, 0x00, 0x00, 
	0x25, 0x00, 0x00, 0x00, 0xb0, 0xee, 0xff, 0xff, 0x06, 0x00, 0x00, 0x00, 0x00, 0x00, 0x00, 0x06, 0x02, 0x00, 0x00, 0x00, 
	0xbc, 0x49, 0xff, 0xff, 0x14, 0x00, 0x00, 0x00, 0x27, 0x00, 0x00, 0x00, 0x18, 0x00, 0x00, 0x00, 0x30, 0x00, 0x00, 0x00, 
	0x20, 0x00, 0x00, 0x00, 0x02, 0x00, 0x00, 0x00, 0x01, 0x00, 0x00, 0x00, 0x04, 0x00, 0x00, 0x00, 0x08, 0x00, 0x00, 0x00, 
	0x49, 0x64, 0x65, 0x6e, 0x74, 0x69, 0x74, 0x79, 0x00, 0x00, 0x00, 0x00, 0x02, 0x00, 0x00, 0x00, 0xff, 0xff, 0xff, 0xff, 
	0x04, 0x00, 0x00, 0x00, 0xa8, 0x49, 0xff, 0xff, 0x72, 0xf1, 0xff, 0xff, 0x00, 0x00, 0x00, 0x09, 0x06, 0x00, 0x00, 0x00, 
	0x1c, 0x00, 0x00, 0x00, 0x10, 0x00, 0x00, 0x00, 0x04, 0x00, 0x00, 0x00, 0x92, 0x4a, 0xff, 0xff, 0x00, 0x00, 0x80, 0x3f, 
	0x01, 0x00, 0x00, 0x00, 0x25, 0x00, 0x00, 0x00, 0x01, 0x00, 0x00, 0x00, 0x24, 0x00, 0x00, 0x00, 0x34, 0xef, 0xff, 0xff, 
	0x19, 0x00, 0x00, 0x00, 0x00, 0x00, 0x00, 0x19, 0x02, 0x00, 0x00, 0x00, 0x28, 0xef, 0xff, 0xff, 0x00, 0x00, 0x00, 0x09, 
	0x14, 0x00, 0x00, 0x00, 0x26, 0x00, 0x00, 0x00, 0x18, 0x00, 0x00, 0x00, 0x30, 0x00, 0x00, 0x00, 0x20, 0x00, 0x00, 0x00, 
	0x02, 0x00, 0x00, 0x00, 0x01, 0x00, 0x00, 0x00, 0x04, 0x00, 0x00, 0x00, 0x09, 0x00, 0x00, 0x00, 0x49, 0x64, 0x65, 0x6e, 
	0x74, 0x69, 0x74, 0x79, 0x31, 0x00, 0x00, 0x00, 0x02, 0x00, 0x00, 0x00, 0xff, 0xff, 0xff, 0xff, 0x04, 0x00, 0x00, 0x00, 
	0x88, 0x4e, 0xff, 0xff, 0x08, 0x00, 0x00, 0x00, 0x0c, 0x00, 0x00, 0x00, 0x01, 0x00, 0x00, 0x00, 0x00, 0x00, 0x80, 0x3b, 
	0x01, 0x00, 0x00, 0x00, 0x80, 0xff, 0xff, 0xff, 0xff, 0xff, 0xff, 0xff, 0x00, 0x00, 0x00, 0x00, 0x1a, 0xf2, 0xff, 0xff, 
	0x00, 0x00, 0x00, 0x08, 0x05, 0x00, 0x00, 0x00, 0x18, 0x00, 0x00, 0x00, 0x0c, 0x00, 0x00, 0x00, 0x04, 0x00, 0x00, 0x00, 
	0x6c, 0x4a, 0xff, 0xff, 0x01, 0x00, 0x00, 0x00, 0x24, 0x00, 0x00, 0x00, 0x03, 0x00, 0x00, 0x00, 0x23, 0x00, 0x00, 0x00, 
	0x15, 0x00, 0x00, 0x00, 0x16, 0x00, 0x00, 0x00, 0xe0, 0xef, 0xff, 0xff, 0x09, 0x00, 0x00, 0x00, 0x00, 0x00, 0x00, 0x09, 
	0x04, 0x00, 0x00, 0x00, 0xd4, 0xef, 0xff, 0xff, 0x00, 0x00, 0x00, 0x09, 0x14, 0x00, 0x00, 0x00, 0x25, 0x00, 0x00, 0x00, 
	0x18, 0x00, 0x00, 0x00, 0x4c, 0x00, 0x00, 0x00, 0x3c, 0x00, 0x00, 0x00, 0x02, 0x00, 0x00, 0x00, 0x01, 0x00, 0x00, 0x00, 
	0x04, 0x00, 0x00, 0x00, 0x26, 0x00, 0x00, 0x00, 0x6d, 0x6f, 0x64, 0x65, 0x6c, 0x2f, 0x64, 0x65, 0x6e, 0x73, 0x65, 0x2f, 
	0x4d, 0x61, 0x74, 0x4d, 0x75, 0x6c, 0x3b, 0x6d, 0x6f, 0x64, 0x65, 0x6c, 0x2f, 0x64, 0x65, 0x6e, 0x73, 0x65, 0x2f, 0x42, 
	0x69, 0x61, 0x73, 0x41, 0x64, 0x64, 0x00, 0x00, 0x02, 0x00, 0x00, 0x00, 0xff, 0xff, 0xff, 0xff, 0x04, 0x00, 0x00, 0x00, 
	0x50, 0x4f, 0xff, 0xff, 0x08, 0x00, 0x00, 0x00, 0x0c, 0x00, 0x00, 0x00, 0x01, 0x00, 0x00, 0x00, 0x54, 0x99, 0x06, 0x3e, 
	0x01, 0x00, 0x00, 0x00, 0xdd, 0xff, 0xff, 0xff, 0xff, 0xff, 0xff, 0xff, 0x5a, 0xf1, 0xff, 0xff, 0x01, 0x00, 0x00, 0x00, 
	0x10, 0x00, 0x00, 0x00, 0x04, 0x00, 0x00, 0x00, 0x01, 0x00, 0x00, 0x00, 0x23, 0x00, 0x00, 0x00, 0x02, 0x00, 0x00, 0x00, 
	0x22, 0x00, 0x00, 0x00, 0x02, 0x00, 0x00, 0x00, 0x78, 0xf0, 0xff, 0xff, 0x00, 0x00, 0x00, 0x09, 0x14, 0x00, 0x00, 0x00, 
	0x24, 0x00, 0x00, 0x00, 0x18, 0x00, 0x00, 0x00, 0x40, 0x00, 0x00, 0x00, 0x30, 0x00, 0x00, 0x00, 0x02, 0x00, 0x00, 0x00, 
	0x01, 0x00, 0x00, 0x00, 0x40, 0x00, 0x00, 0x00, 0x1a, 0x00, 0x00, 0x00, 0x6d, 0x6f, 0x64, 0x65, 0x6c, 0x2f, 0x74, 0x66, 
	0x2e, 0x72, 0x65, 0x73, 0x68, 0x61, 0x70, 0x65, 0x5f, 0x31, 0x2f, 0x52, 0x65, 0x73, 0x68, 0x61, 0x70, 0x65, 0x00, 0x00, 
	0x02, 0x00, 0x00, 0x00, 0xff, 0xff, 0xff, 0xff, 0x40, 0x00, 0x00, 0x00, 0xe8, 0x4f, 0xff, 0xff, 0x08, 0x00, 0x00, 0x00, 
	0x0c, 0x00, 0x00, 0x00, 0x01, 0x00, 0x00, 0x00, 0x44, 0x18, 0x7b, 0x3d, 0x01, 0x00, 0x00, 0x00, 0x80, 0xff, 0xff, 0xff, 
	0xff, 0xff, 0xff, 0xff, 0x22, 0xf5, 0xff, 0xff, 0x00, 0x00, 0x00, 0x05, 0x04, 0x00, 0x00, 0x00, 0x3c, 0x00, 0x00, 0x00, 
	0x30, 0x00, 0x00, 0x00, 0x14, 0x00, 0x00, 0x00, 0x00, 0x00, 0x0e, 0x00, 0x18, 0x00, 0x0f, 0x00, 0x04, 0x00, 0x08, 0x00, 
	0x10, 0x00, 0x14, 0x00, 0x0e, 0x00, 0x00, 0x00, 0x01, 0x00, 0x00, 0x00, 0x01, 0x00, 0x00, 0x00, 0x00, 0x00, 0x00, 0x01, 
	0x05, 0x00, 0x00, 0x00, 0x19, 0x00, 0x00, 0x00, 0x01, 0x00, 0x00, 0x00, 0x22, 0x00, 0x00, 0x00, 0x01, 0x00, 0x00, 0x00, 
	0x21, 0x00, 0x00, 0x00, 0x58, 0xf1, 0xff, 0xff, 0x01, 0x00, 0x00, 0x00, 0x00, 0x00, 0x00, 0x01, 0x02, 0x00, 0x00, 0x00, 
	0x4c, 0xf1, 0xff, 0xff, 0x00, 0x00, 0x00, 0x09, 0x14, 0x00, 0x00, 0x00, 0x23, 0x00, 0x00, 0x00, 0x20, 0x00, 0x00, 0x00, 
	0x54, 0x00, 0x00, 0x00, 0x3c, 0x00, 0x00, 0x00, 0x04, 0x00, 0x00, 0x00, 0x01, 0x00, 0x00, 0x00, 0x01, 0x00, 0x00, 0x00, 
	0x01, 0x00, 0x00, 0x00, 0x40, 0x00, 0x00, 0x00, 0x1f, 0x00, 0x00, 0x00, 0x6d, 0x6f, 0x64, 0x65, 0x6c, 0x2f, 0x61, 0x76, 
	0x65, 0x72, 0x61, 0x67, 0x65, 0x5f, 0x70, 0x6f, 0x6f, 0x6c, 0x69, 0x6e, 0x67, 0x32, 0x64, 0x2f, 0x41, 0x76, 0x67, 0x50, 
	0x6f, 0x6f, 0x6c, 0x00, 0x04, 0x00, 0x00, 0x00, 0xff, 0xff, 0xff, 0xff, 0x01, 0x00, 0x00, 0x00, 0x01, 0x00, 0x00, 0x00, 
	0x40, 0x00, 0x00, 0x00, 0xd0, 0x50, 0xff, 0xff, 0x08, 0x00, 0x00, 0x00, 0x0c, 0x00, 0x00, 0x00, 0x01, 0x00, 0x00, 0x00, 
	0x44, 0x18, 0x7b, 0x3d, 0x01, 0x00, 0x00, 0x00, 0x80, 0xff, 0xff, 0xff, 0xff, 0xff, 0xff, 0xff, 0x5e, 0xf4, 0xff, 0xff, 
	0x00, 0x00, 0x00, 0x01, 0x02, 0x00, 0x00, 0x00, 0x24, 0x00, 0x00, 0x00, 0x18, 0x00, 0x00, 0x00, 0x04, 0x00, 0x00, 0x00, 
	0x78, 0xf7, 0xff, 0xff, 0x01, 0x00, 0x00, 0x00, 0x01, 0x00, 0x00, 0x00, 0x00, 0x00, 0x01, 0x01, 0x01, 0x00, 0x00, 0x00, 
	0x21, 0x00, 0x00, 0x00, 0x03, 0x00, 0x00, 0x00, 0x20, 0x00, 0x00, 0x00, 0x13, 0x00, 0x00, 0x00, 0x14, 0x00, 0x00, 0x00, 
	0x14, 0xf2, 0xff, 0xff, 0x00, 0x00, 0x00, 0x09, 0x14, 0x00, 0x00, 0x00, 0x22, 0x00, 0x00, 0x00, 0x20, 0x00, 0x00, 0x00, 
	0xd4, 0x00, 0x00, 0x00, 0xbc, 0x00, 0x00, 0x00, 0x04, 0x00, 0x00, 0x00, 0x01, 0x00, 0x00, 0x00, 0x19, 0x00, 0x00, 0x00, 
	0x05, 0x00, 0x00, 0x00, 0x40, 0x00, 0x00, 0x00, 0x9c, 0x00, 0x00, 0x00, 0x6d, 0x6f, 0x64, 0x65, 0x6c, 0x2f, 0x72, 0x65, 
	0x5f, 0x6c, 0x75, 0x5f, 0x38, 0x2f, 0x52, 0x65, 0x6c, 0x75, 0x3b, 0x6d, 0x6f, 0x64, 0x65, 0x6c, 0x2f, 0x62, 0x61, 0x74, 
	0x63, 0x68, 0x5f, 0x6e, 0x6f, 0x72, 0x6d, 0x61, 0x6c, 0x69, 0x7a, 0x61, 0x74, 0x69, 0x6f, 0x6e, 0x5f, 0x38, 0x2f, 0x46, 
	0x75, 0x73, 0x65, 0x64, 0x42, 0x61, 0x74, 0x63, 0x68, 0x4e, 0x6f, 0x72, 0x6d, 0x56, 0x33, 0x3b, 0x6d, 0x6f, 0x64, 0x65, 
	0x6c, 0x2f, 0x63, 0x6f, 0x6e, 0x76, 0x32, 0x64, 0x5f, 0x34, 0x2f, 0x42, 0x69, 0x61, 0x73, 0x41, 0x64, 0x64, 0x2f, 0x52, 
	0x65, 0x61, 0x64, 0x56, 0x61, 0x72, 0x69, 0x61, 0x62, 0x6c, 0x65, 0x4f, 0x70, 0x2f, 0x72, 0x65, 0x73, 0x6f, 0x75, 0x72, 
	0x63, 0x65, 0x3b, 0x6d, 0x6f, 0x64, 0x65, 0x6c, 0x2f, 0x63, 0x6f, 0x6e, 0x76, 0x32, 0x64, 0x5f, 0x34, 0x2f, 0x42, 0x69, 
	0x61, 0x73, 0x41, 0x64, 0x64, 0x3b, 0x6d, 0x6f, 0x64, 0x65, 0x6c, 0x2f, 0x63, 0x6f, 0x6e, 0x76, 0x32, 0x64, 0x5f, 0x34, 
	0x2f, 0x43, 0x6f, 0x6e, 0x76, 0x32, 0x44, 0x31, 0x00, 0x00, 0x00, 0x00, 0x04, 0x00, 0x00, 0x00, 0xff, 0xff, 0xff, 0xff, 
	0x19, 0x00, 0x00, 0x00, 0x05, 0x00, 0x00, 0x00, 0x40, 0x00, 0x00, 0x00, 0x18, 0x52, 0xff, 0xff, 0x08, 0x00, 0x00, 0x00, 
	0x0c, 0x00, 0x00, 0x00, 0x01, 0x00, 0x00, 0x00, 0x44, 0x18, 0x7b, 0x3d, 0x01, 0x00, 0x00, 0x00, 0x80, 0xff, 0xff, 0xff, 
	0xff, 0xff, 0xff, 0xff, 0xa6, 0xf5, 0xff, 0xff, 0x00, 0x00, 0x00, 0x02, 0x03, 0x00, 0x00, 0x00, 0x28, 0x00, 0x00, 0x00, 
	0x1c, 0x00, 0x00, 0x00, 0x04, 0x00, 0x00, 0x00, 0x42, 0xf7, 0xff, 0xff, 0x01, 0x00, 0x00, 0x00, 0x01, 0x00, 0x00, 0x00, 
	0x01, 0x00, 0x00, 0x00, 0x00, 0x00, 0x00, 0x01, 0x01, 0x00, 0x00, 0x00, 0x20, 0x00, 0x00, 0x00, 0x03, 0x00, 0x00, 0x00, 
	0x1f, 0x00, 0x00, 0x00, 0x11, 0x00, 0x00, 0x00, 0x12, 0x00, 0x00, 0x00, 0x60, 0xf3, 0xff, 0xff, 0x00, 0x00, 0x00, 0x09, 
	0x14, 0x00, 0x00, 0x00, 0x21, 0x00, 0x00, 0x00, 0x20, 0x00, 0x00, 0x00, 0x08, 0x01, 0x00, 0x00, 0xf0, 0x00, 0x00, 0x00, 
	0x04, 0x00, 0x00, 0x00, 0x01, 0x00, 0x00, 0x00, 0x19, 0x00, 0x00, 0x00, 0x05, 0x00, 0x00, 0x00, 0x40, 0x00, 0x00, 0x00, 
	0xd3, 0x00, 0x00, 0x00, 0x6d, 0x6f, 0x64, 0x65, 0x6c, 0x2f, 0x72, 0x65, 0x5f, 0x6c, 0x75, 0x5f, 0x37, 0x2f, 0x52, 0x65, 
	0x6c, 0x75, 0x3b, 0x6d, 0x6f, 0x64, 0x65, 0x6c, 0x2f, 0x62, 0x61, 0x74, 0x63, 0x68, 0x5f, 0x6e, 0x6f, 0x72, 0x6d, 0x61, 
	0x6c, 0x69, 0x7a, 0x61, 0x74, 0x69, 0x6f, 0x6e, 0x5f, 0x37, 0x2f, 0x46, 0x75, 0x73, 0x65, 0x64, 0x42, 0x61, 0x74, 0x63, 
	0x68, 0x4e, 0x6f, 0x72, 0x6d, 0x56, 0x33, 0x3b, 0x6d, 0x6f, 0x64, 0x65, 0x6c, 0x2f, 0x64, 0x65, 0x70, 0x74, 0x68, 0x77, 
	0x69, 0x73, 0x65, 0x5f, 0x63, 0x6f, 0x6e, 0x76, 0x32, 0x64, 0x5f, 0x33, 0x2f, 0x64, 0x65, 0x70, 0x74, 0x68, 0x77, 0x69, 
	0x73, 0x65, 0x3b, 0x6d, 0x6f, 0x64, 0x65, 0x6c, 0x2f, 0x64, 0x65, 0x70, 0x74, 0x68, 0x77, 0x69, 0x73, 0x65, 0x5f, 0x63, 
	0x6f, 0x6e, 0x76, 0x32, 0x64, 0x5f, 0x33, 0x2f, 0x42, 0x69, 0x61, 0x73, 0x41, 0x64, 0x64, 0x3b, 0x6d, 0x6f, 0x64, 0x65, 
	0x6c, 0x2f, 0x63, 0x6f, 0x6e, 0x76, 0x32, 0x64, 0x5f, 0x34, 0x2f, 0x43, 0x6f, 0x6e, 0x76, 0x32, 0x44, 0x3b, 0x6d, 0x6f, 
	0x64, 0x65, 0x6c, 0x2f, 0x64, 0x65, 0x70, 0x74, 0x68, 0x77, 0x69, 0x73, 0x65, 0x5f, 0x63, 0x6f, 0x6e, 0x76, 0x32, 0x64, 
	0x5f, 0x33, 0x2f, 0x42, 0x69, 0x61, 0x73, 0x41, 0x64, 0x64, 0x2f, 0x52, 0x65, 0x61, 0x64, 0x56, 0x61, 0x72, 0x69, 0x61, 
	0x62, 0x6c, 0x65, 0x4f, 0x70, 0x2f, 0x72, 0x65, 0x73, 0x6f, 0x75, 0x72, 0x63, 0x65, 0x31, 0x00, 0x04, 0x00, 0x00, 0x00, 
	0xff, 0xff, 0xff, 0xff, 0x19, 0x00, 0x00, 0x00, 0x05, 0x00, 0x00, 0x00, 0x40, 0x00, 0x00, 0x00, 0x98, 0x53, 0xff, 0xff, 
	0x08, 0x00, 0x00, 0x00, 0x0c, 0x00, 0x00, 0x00, 0x01, 0x00, 0x00, 0x00, 0xec, 0x5d, 0x69, 0x3d, 0x01, 0x00, 0x00, 0x00, 
	0x80, 0xff, 0xff, 0xff, 0xff, 0xff, 0xff, 0xff, 0x00, 0x00, 0x00, 0x00, 0x2a, 0xf7, 0xff, 0xff, 0x00, 0x00, 0x00, 0x01, 
	0x02, 0x00, 0x00, 0x00, 0x24, 0x00, 0x00, 0x00, 0x18, 0x00, 0x00, 0x00, 0x04, 0x00, 0x00, 0x00, 0x44, 0xfa, 0xff, 0xff, 
	0x01, 0x00, 0x00, 0x00, 0x01, 0x00, 0x00, 0x00, 0x00, 0x00, 0x01, 0x01, 0x01, 0x00, 0x00, 0x00, 0x1f, 0x00, 0x00, 0x00, 
	0x03, 0x00, 0x00, 0x00, 0x1e, 0x00, 0x00, 0x00, 0x0f, 0x00, 0x00, 0x00, 0x10, 0x00, 0x00, 0x00, 0xe0, 0xf4, 0xff, 0xff, 
	0x00, 0x00, 0x00, 0x09, 0x14, 0x00, 0x00, 0x00, 0x20, 0x00, 0x00, 0x00, 0x20, 0x00, 0x00, 0x00, 0xe8, 0x00, 0x00, 0x00, 
	0xd0, 0x00, 0x00, 0x00, 0x04, 0x00, 0x00, 0x00, 0x01, 0x00, 0x00, 0x00, 0x19, 0x00, 0x00, 0x00, 0x05, 0x00, 0x00, 0x00, 
	0x40, 0x00, 0x00, 0x00, 0xb2, 0x00, 0x00, 0x00, 0x6d, 0x6f, 0x64, 0x65, 0x6c, 0x2f, 0x72, 0x65, 0x5f, 0x6c, 0x75, 0x5f, 
	0x36, 0x2f, 0x52, 0x65, 0x6c, 0x75, 0x3b, 0x6d, 0x6f, 0x64, 0x65, 0x6c, 0x2f, 0x62, 0x61, 0x74, 0x63, 0x68, 0x5f, 0x6e, 
	0x6f, 0x72, 0x6d, 0x61, 0x6c, 0x69, 0x7a, 0x61, 0x74, 0x69, 0x6f, 0x6e, 0x5f, 0x36, 0x2f, 0x46, 0x75, 0x73, 0x65, 0x64, 
	0x42, 0x61, 0x74, 0x63, 0x68, 0x4e, 0x6f, 0x72, 0x6d, 0x56, 0x33, 0x3b, 0x6d, 0x6f, 0x64, 0x65, 0x6c, 0x2f, 0x63, 0x6f, 
	0x6e, 0x76, 0x32, 0x64, 0x5f, 0x33, 0x2f, 0x42, 0x69, 0x61, 0x73, 0x41, 0x64, 0x64, 0x2f, 0x52, 0x65, 0x61, 0x64, 0x56, 
	0x61, 0x72, 0x69, 0x61, 0x62, 0x6c, 0x65, 0x4f, 0x70, 0x2f, 0x72, 0x65, 0x73, 0x6f, 0x75, 0x72, 0x63, 0x65, 0x3b, 0x6d, 
	0x6f, 0x64, 0x65, 0x6c, 0x2f, 0x63, 0x6f, 0x6e, 0x76, 0x32, 0x64, 0x5f, 0x33, 0x2f, 0x42, 0x69, 0x61, 0x73, 0x41, 0x64, 
	0x64, 0x3b, 0x6d, 0x6f, 0x64, 0x65, 0x6c, 0x2f, 0x63, 0x6f, 0x6e, 0x76, 0x32, 0x64, 0x5f, 0x34, 0x2f, 0x43, 0x6f, 0x6e, 
	0x76, 0x32, 0x44, 0x3b, 0x6d, 0x6f, 0x64, 0x65, 0x6c, 0x2f, 0x63, 0x6f, 0x6e, 0x76, 0x32, 0x64, 0x5f, 0x33, 0x2f, 0x43, 
	0x6f, 0x6e, 0x76, 0x32, 0x44, 0x31, 0x00, 0x00, 0x04, 0x00, 0x00, 0x00, 0xff, 0xff, 0xff, 0xff, 0x19, 0x00, 0x00, 0x00, 
	0x05, 0x00, 0x00, 0x00, 0x40, 0x00, 0x00, 0x00, 0xf8, 0x54, 0xff, 0xff, 0x08, 0x00, 0x00, 0x00, 0x0c, 0x00, 0x00, 0x00, 
	0x01, 0x00, 0x00, 0x00, 0xf7, 0x07, 0xa8, 0x3d, 0x01, 0x00, 0x00, 0x00, 0x80, 0xff, 0xff, 0xff, 0xff, 0xff, 0xff, 0xff, 
	0x86, 0xf8, 0xff, 0xff, 0x00, 0x00, 0x00, 0x02, 0x03, 0x00, 0x00, 0x00, 0x28, 0x00, 0x00, 0x00, 0x1c, 0x00, 0x00, 0x00, 
	0x04, 0x00, 0x00, 0x00, 0x22, 0xfa, 0xff, 0xff, 0x01, 0x00, 0x00, 0x00, 0x01, 0x00, 0x00, 0x00, 0x01, 0x00, 0x00, 0x00, 
	0x00, 0x00, 0x00, 0x01, 0x01, 0x00, 0x00, 0x00, 0x1e, 0x00, 0x00, 0x00, 0x03, 0x00, 0x00, 0x00, 0x1d, 0x00, 0x00, 0x00, 
	0x0d, 0x00, 0x00, 0x00, 0x0e, 0x00, 0x00, 0x00, 0x40, 0xf6, 0xff, 0xff, 0x00, 0x00, 0x00, 0x09, 0x14, 0x00, 0x00, 0x00, 
	0x1f, 0x00, 0x00, 0x00, 0x20, 0x00, 0x00, 0x00, 0x08, 0x01, 0x00, 0x00, 0xf0, 0x00, 0x00, 0x00, 0x04, 0x00, 0x00, 0x00, 
	0x01, 0x00, 0x00, 0x00, 0x19, 0x00, 0x00, 0x00, 0x05, 0x00, 0x00, 0x00, 0x40, 0x00, 0x00, 0x00, 0xd3, 0x00, 0x00, 0x00, 
	0x6d, 0x6f, 0x64, 0x65, 0x6c, 0x2f, 0x72, 0x65, 0x5f, 0x6c, 0x75, 0x5f, 0x35, 0x2f, 0x52, 0x65, 0x6c, 0x75, 0x3b, 0x6d, 
	0x6f, 0x64, 0x65, 0x6c, 0x2f, 0x62, 0x61, 0x74, 0x63, 0x68, 0x5f, 0x6e, 0x6f, 0x72, 0x6d, 0x61, 0x6c, 0x69, 0x7a, 0x61, 
	0x74, 0x69, 0x6f, 0x6e, 0x5f, 0x35, 0x2f, 0x46, 0x75, 0x73, 0x65, 0x64, 0x42, 0x61, 0x74, 0x63, 0x68, 0x4e, 0x6f, 0x72, 
	0x6d, 0x56, 0x33, 0x3b, 0x6d, 0x6f, 0x64, 0x65, 0x6c, 0x2f, 0x64, 0x65, 0x70, 0x74, 0x68, 0x77, 0x69, 0x73, 0x65, 0x5f, 
	0x63, 0x6f, 0x6e, 0x76, 0x32, 0x64, 0x5f, 0x32, 0x2f, 0x64, 0x65, 0x70, 0x74, 0x68, 0x77, 0x69, 0x73, 0x65, 0x3b, 0x6d, 
	0x6f, 0x64, 0x65, 0x6c, 0x2f, 0x64, 0x65, 0x70, 0x74, 0x68, 0x77, 0x69, 0x73, 0x65, 0x5f, 0x63, 0x6f, 0x6e, 0x76, 0x32, 
	0x64, 0x5f, 0x32, 0x2f, 0x42, 0x69, 0x61, 0x73, 0x41, 0x64, 0x64, 0x3b, 0x6d, 0x6f, 0x64, 0x65, 0x6c, 0x2f, 0x63, 0x6f, 
	0x6e, 0x76, 0x32, 0x64, 0x5f, 0x34, 0x2f, 0x43, 0x6f, 0x6e, 0x76, 0x32, 0x44, 0x3b, 0x6d, 0x6f, 0x64, 0x65, 0x6c, 0x2f, 
	0x64, 0x65, 0x70, 0x74, 0x68, 0x77, 0x69, 0x73, 0x65, 0x5f, 0x63, 0x6f, 0x6e, 0x76, 0x32, 0x64, 0x5f, 0x32, 0x2f, 0x42, 
	0x69, 0x61, 0x73, 0x41, 0x64, 0x64, 0x2f, 0x52, 0x65, 0x61, 0x64, 0x56, 0x61, 0x72, 0x69, 0x61, 0x62, 0x6c, 0x65, 0x4f, 
	0x70, 0x2f, 0x72, 0x65, 0x73, 0x6f, 0x75, 0x72, 0x63, 0x65, 0x31, 0x00, 0x04, 0x00, 0x00, 0x00, 0xff, 0xff, 0xff, 0xff, 
	0x19, 0x00, 0x00, 0x00, 0x05, 0x00, 0x00, 0x00, 0x40, 0x00, 0x00, 0x00, 0x78, 0x56, 0xff, 0xff, 0x08, 0x00, 0x00, 0x00, 
	0x0c, 0x00, 0x00, 0x00, 0x01, 0x00, 0x00, 0x00, 0xbd, 0xea, 0xc0, 0x3d, 0x01, 0x00, 0x00, 0x00, 0x80, 0xff, 0xff, 0xff, 
	0xff, 0xff, 0xff, 0xff, 0x00, 0x00, 0x00, 0x00, 0x0a, 0xfa, 0xff, 0xff, 0x00, 0x00, 0x00, 0x01, 0x02, 0x00, 0x00, 0x00, 
	0x24, 0x00, 0x00, 0x00, 0x18, 0x00, 0x00, 0x00, 0x04, 0x00, 0x00, 0x00, 0x24, 0xfd, 0xff, 0xff, 0x01, 0x00, 0x00, 0x00, 
	0x01, 0x00, 0x00, 0x00, 0x00, 0x00, 0x01, 0x01, 0x01, 0x00, 0x00, 0x00, 0x1d, 0x00, 0x00, 0x00, 0x03, 0x00, 0x00, 0x00, 
	0x1c, 0x00, 0x00, 0x00, 0x0b, 0x00, 0x00, 0x00, 0x0c, 0x00, 0x00, 0x00, 0xc0, 0xf7, 0xff, 0xff, 0x00, 0x00, 0x00, 0x09, 
	0x14, 0x00, 0x00, 0x00, 0x1e, 0x00, 0x00, 0x00, 0x20, 0x00, 0x00, 0x00, 0xe8, 0x00, 0x00, 0x00, 0xd0, 0x00, 0x00, 0x00, 
	0x04, 0x00, 0x00, 0x00, 0x01, 0x00, 0x00, 0x00, 0x19, 0x00, 0x00, 0x00, 0x05, 0x00, 0x00, 0x00, 0x40, 0x00, 0x00, 0x00, 
	0xb2, 0x00, 0x00, 0x00, 0x6d, 0x6f, 0x64, 0x65, 0x6c, 0x2f, 0x72, 0x65, 0x5f, 0x6c, 0x75, 0x5f, 0x34, 0x2f, 0x52, 0x65, 
	0x6c, 0x75, 0x3b, 0x6d, 0x6f, 0x64, 0x65, 0x6c, 0x2f, 0x62, 0x61, 0x74, 0x63, 0x68, 0x5f, 0x6e, 0x6f, 0x72, 0x6d, 0x61, 
	0x6c, 0x69, 0x7a, 0x61, 0x74, 0x69, 0x6f, 0x6e, 0x5f, 0x34, 0x2f, 0x46, 0x75, 0x73, 0x65, 0x64, 0x42, 0x61, 0x74, 0x63, 
	0x68, 0x4e, 0x6f, 0x72, 0x6d, 0x56, 0x33, 0x3b, 0x6d, 0x6f, 0x64, 0x65, 0x6c, 0x2f, 0x63, 0x6f, 0x6e, 0x76, 0x32, 0x64, 
	0x5f, 0x32, 0x2f, 0x42, 0x69, 0x61, 0x73, 0x41, 0x64, 0x64, 0x2f, 0x52, 0x65, 0x61, 0x64, 0x56, 0x61, 0x72, 0x69, 0x61, 
	0x62, 0x6c, 0x65, 0x4f, 0x70, 0x2f, 0x72, 0x65, 0x73, 0x6f, 0x75, 0x72, 0x63, 0x65, 0x3b, 0x6d, 0x6f, 0x64, 0x65, 0x6c, 
	0x2f, 0x63, 0x6f, 0x6e, 0x76, 0x32, 0x64, 0x5f, 0x32, 0x2f, 0x42, 0x69, 0x61, 0x73, 0x41, 0x64, 0x64, 0x3b, 0x6d, 0x6f, 
	0x64, 0x65, 0x6c, 0x2f, 0x63, 0x6f, 0x6e, 0x76, 0x32, 0x64, 0x5f, 0x34, 0x2f, 0x43, 0x6f, 0x6e, 0x76, 0x32, 0x44, 0x3b, 
	0x6d, 0x6f, 0x64, 0x65, 0x6c, 0x2f, 0x63, 0x6f, 0x6e, 0x76, 0x32, 0x64, 0x5f, 0x32, 0x2f, 0x43, 0x6f, 0x6e, 0x76, 0x32, 
	0x44, 0x31, 0x00, 0x00, 0x04, 0x00, 0x00, 0x00, 0xff, 0xff, 0xff, 0xff, 0x19, 0x00, 0x00, 0x00, 0x05, 0x00, 0x00, 0x00, 
	0x40, 0x00, 0x00, 0x00, 0xd8, 0x57, 0xff, 0xff, 0x08, 0x00, 0x00, 0x00, 0x0c, 0x00, 0x00, 0x00, 0x01, 0x00, 0x00, 0x00, 
	0x5a, 0xec, 0xad, 0x3d, 0x01, 0x00, 0x00, 0x00, 0x80, 0xff, 0xff, 0xff, 0xff, 0xff, 0xff, 0xff, 0x66, 0xfb, 0xff, 0xff, 
	0x00, 0x00, 0x00, 0x02, 0x03, 0x00, 0x00, 0x00, 0x28, 0x00, 0x00, 0x00, 0x1c, 0x00, 0x00, 0x00, 0x04, 0x00, 0x00, 0x00, 
	0x02, 0xfd, 0xff, 0xff, 0x01, 0x00, 0x00, 0x00, 0x01, 0x00, 0x00, 0x00, 0x01, 0x00, 0x00, 0x00, 0x00, 0x00, 0x00, 0x01, 
	0x01, 0x00, 0x00, 0x00, 0x1c, 0x00, 0x00, 0x00, 0x03, 0x00, 0x00, 0x00, 0x1b, 0x00, 0x00, 0x00, 0x09, 0x00, 0x00, 0x00, 
	0x0a, 0x00, 0x00, 0x00, 0x20, 0xf9, 0xff, 0xff, 0x00, 0x00, 0x00, 0x09, 0x14, 0x00, 0x00, 0x00, 0x1d, 0x00, 0x00, 0x00, 
	0x20, 0x00, 0x00, 0x00, 0x08, 0x01, 0x00, 0x00, 0xf0, 0x00, 0x00, 0x00, 0x04, 0x00, 0x00, 0x00, 0x01, 0x00, 0x00, 0x00, 
	0x19, 0x00, 0x00, 0x00, 0x05, 0x00, 0x00, 0x00, 0x40, 0x00, 0x00, 0x00, 0xd3, 0x00, 0x00, 0x00, 0x6d, 0x6f, 0x64, 0x65, 
	0x6c, 0x2f, 0x72, 0x65, 0x5f, 0x6c, 0x75, 0x5f, 0x33, 0x2f, 0x52, 0x65, 0x6c, 0x75, 0x3b, 0x6d, 0x6f, 0x64, 0x65, 0x6c, 
	0x2f, 0x62, 0x61, 0x74, 0x63, 0x68, 0x5f, 0x6e, 0x6f, 0x72, 0x6d, 0x61, 0x6c, 0x69, 0x7a, 0x61, 0x74, 0x69, 0x6f, 0x6e, 
	0x5f, 0x33, 0x2f, 0x46, 0x75, 0x73, 0x65, 0x64, 0x42, 0x61, 0x74, 0x63, 0x68, 0x4e, 0x6f, 0x72, 0x6d, 0x56, 0x33, 0x3b, 
	0x6d, 0x6f, 0x64, 0x65, 0x6c, 0x2f, 0x64, 0x65, 0x70, 0x74, 0x68, 0x77, 0x69, 0x73, 0x65, 0x5f, 0x63, 0x6f, 0x6e, 0x76, 
	0x32, 0x64, 0x5f, 0x31, 0x2f, 0x64, 0x65, 0x70, 0x74, 0x68, 0x77, 0x69, 0x73, 0x65, 0x3b, 0x6d, 0x6f, 0x64, 0x65, 0x6c, 
	0x2f, 0x64, 0x65, 0x70, 0x74, 0x68, 0x77, 0x69, 0x73, 0x65, 0x5f, 0x63, 0x6f, 0x6e, 0x76, 0x32, 0x64, 0x5f, 0x31, 0x2f, 
	0x42, 0x69, 0x61, 0x73, 0x41, 0x64, 0x64, 0x3b, 0x6d, 0x6f, 0x64, 0x65, 0x6c, 0x2f, 0x63, 0x6f, 0x6e, 0x76, 0x32, 0x64, 
	0x5f, 0x34, 0x2f, 0x43, 0x6f, 0x6e, 0x76, 0x32, 0x44, 0x3b, 0x6d, 0x6f, 0x64, 0x65, 0x6c, 0x2f, 0x64, 0x65, 0x70, 0x74, 
	0x68, 0x77, 0x69, 0x73, 0x65, 0x5f, 0x63, 0x6f, 0x6e, 0x76, 0x32, 0x64, 0x5f, 0x31, 0x2f, 0x42, 0x69, 0x61, 0x73, 0x41, 
	0x64, 0x64, 0x2f, 0x52, 0x65, 0x61, 0x64, 0x56, 0x61, 0x72, 0x69, 0x61, 0x62, 0x6c, 0x65, 0x4f, 0x70, 0x2f, 0x72, 0x65, 
	0x73, 0x6f, 0x75, 0x72, 0x63, 0x65, 0x31, 0x00, 0x04, 0x00, 0x00, 0x00, 0xff, 0xff, 0xff, 0xff, 0x19, 0x00, 0x00, 0x00, 
	0x05, 0x00, 0x00, 0x00, 0x40, 0x00, 0x00, 0x00, 0x58, 0x59, 0xff, 0xff, 0x08, 0x00, 0x00, 0x00, 0x0c, 0x00, 0x00, 0x00, 
	0x01, 0x00, 0x00, 0x00, 0x56, 0x26, 0xc9, 0x3d, 0x01, 0x00, 0x00, 0x00, 0x80, 0xff, 0xff, 0xff, 0xff, 0xff, 0xff, 0xff, 
	0xe6, 0xfc, 0xff, 0xff, 0x00, 0x00, 0x00, 0x01, 0x02, 0x00, 0x00, 0x00, 0x30, 0x00, 0x00, 0x00, 0x24, 0x00, 0x00, 0x00, 
	0x10, 0x00, 0x00, 0x00, 0x0c, 0x00, 0x10, 0x00, 0x0e, 0x00, 0x04, 0x00, 0x08, 0x00, 0x0f, 0x00, 0x0c, 0x00, 0x00, 0x00, 
	0x01, 0x00, 0x00, 0x00, 0x01, 0x00, 0x00, 0x00, 0x00, 0x00, 0x01, 0x01, 0x01, 0x00, 0x00, 0x00, 0x1b, 0x00, 0x00, 0x00, 
	0x03, 0x00, 0x00, 0x00, 0x1a, 0x00, 0x00, 0x00, 0x07, 0x00, 0x00, 0x00, 0x08, 0x00, 0x00, 0x00, 0xa8, 0xfa, 0xff, 0xff, 
	0x00, 0x00, 0x00, 0x09, 0x14, 0x00, 0x00, 0x00, 0x1c, 0x00, 0x00, 0x00, 0x20, 0x00, 0x00, 0x00, 0xe8, 0x00, 0x00, 0x00, 
	0xd0, 0x00, 0x00, 0x00, 0x04, 0x00, 0x00, 0x00, 0x01, 0x00, 0x00, 0x00, 0x19, 0x00, 0x00, 0x00, 0x05, 0x00, 0x00, 0x00, 
	0x40, 0x00, 0x00, 0x00, 0xb2, 0x00, 0x00, 0x00, 0x6d, 0x6f, 0x64, 0x65, 0x6c, 0x2f, 0x72, 0x65, 0x5f, 0x6c, 0x75, 0x5f, 
	0x32, 0x2f, 0x52, 0x65, 0x6c, 0x75, 0x3b, 0x6d, 0x6f, 0x64, 0x65, 0x6c, 0x2f, 0x62, 0x61, 0x74, 0x63, 0x68, 0x5f, 0x6e, 
	0x6f, 0x72, 0x6d, 0x61, 0x6c, 0x69, 0x7a, 0x61, 0x74, 0x69, 0x6f, 0x6e, 0x5f, 0x32, 0x2f, 0x46, 0x75, 0x73, 0x65, 0x64, 
	0x42, 0x61, 0x74, 0x63, 0x68, 0x4e, 0x6f, 0x72, 0x6d, 0x56, 0x33, 0x3b, 0x6d, 0x6f, 0x64, 0x65, 0x6c, 0x2f, 0x63, 0x6f, 
	0x6e, 0x76, 0x32, 0x64, 0x5f, 0x31, 0x2f, 0x42, 0x69, 0x61, 0x73, 0x41, 0x64, 0x64, 0x2f, 0x52, 0x65, 0x61, 0x64, 0x56, 
	0x61, 0x72, 0x69, 0x61, 0x62, 0x6c, 0x65, 0x4f, 0x70, 0x2f, 0x72, 0x65, 0x73, 0x6f, 0x75, 0x72, 0x63, 0x65, 0x3b, 0x6d, 
	0x6f, 0x64, 0x65, 0x6c, 0x2f, 0x63, 0x6f, 0x6e, 0x76, 0x32, 0x64, 0x5f, 0x31, 0x2f, 0x42, 0x69, 0x61, 0x73, 0x41, 0x64, 
	0x64, 0x3b, 0x6d, 0x6f, 0x64, 0x65, 0x6c, 0x2f, 0x63, 0x6f, 0x6e, 0x76, 0x32, 0x64, 0x5f, 0x34, 0x2f, 0x43, 0x6f, 0x6e, 
	0x76, 0x32, 0x44, 0x3b, 0x6d, 0x6f, 0x64, 0x65, 0x6c, 0x2f, 0x63, 0x6f, 0x6e, 0x76, 0x32, 0x64, 0x5f, 0x31, 0x2f, 0x43, 
	0x6f, 0x6e, 0x76, 0x32, 0x44, 0x31, 0x00, 0x00, 0x04, 0x00, 0x00, 0x00, 0xff, 0xff, 0xff, 0xff, 0x19, 0x00, 0x00, 0x00, 
	0x05, 0x00, 0x00, 0x00, 0x40, 0x00, 0x00, 0x00, 0xc0, 0x5a, 0xff, 0xff, 0x08, 0x00, 0x00, 0x00, 0x0c, 0x00, 0x00, 0x00, 
	0x01, 0x00, 0x00, 0x00, 0x36, 0x12, 0xed, 0x3d, 0x01, 0x00, 0x00, 0x00, 0x80, 0xff, 0xff, 0xff, 0xff, 0xff, 0xff, 0xff, 
	0x00, 0x00, 0x00, 0x00, 0x00, 0x00, 0x0e, 0x00, 0x1a, 0x00, 0x08, 0x00, 0x0c, 0x00, 0x10, 0x00, 0x07, 0x00, 0x14, 0x00, 
	0x0e, 0x00, 0x00, 0x00, 0x00, 0x00, 0x00, 0x02, 0x03, 0x00, 0x00, 0x00, 0x38, 0x00, 0x00, 0x00, 0x2c, 0x00, 0x00, 0x00, 
	0x14, 0x00, 0x00, 0x00, 0x00, 0x00, 0x0e, 0x00, 0x14, 0x00, 0x00, 0x00, 0x08, 0x00, 0x0c, 0x00, 0x04, 0x00, 0x13, 0x00, 
	0x0e, 0x00, 0x00, 0x00, 0x01, 0x00, 0x00, 0x00, 0x01, 0x00, 0x00, 0x00, 0x01, 0x00, 0x00, 0x00, 0x00, 0x00, 0x00, 0x01, 
	0x01, 0x00, 0x00, 0x00, 0x1a, 0x00, 0x00, 0x00, 0x03, 0x00, 0x00, 0x00, 0x19, 0x00, 0x00, 0x00, 0x05, 0x00, 0x00, 0x00, 
	0x06, 0x00, 0x00, 0x00, 0x48, 0xfc, 0xff, 0xff, 0x04, 0x00, 0x00, 0x00, 0x00, 0x00, 0x00, 0x04, 0x03, 0x00, 0x00, 0x00, 
	0x3c, 0xfc, 0xff, 0xff, 0x00, 0x00, 0x00, 0x09, 0x14, 0x00, 0x00, 0x00, 0x1b, 0x00, 0x00, 0x00, 0x20, 0x00, 0x00, 0x00, 
	0x04, 0x01, 0x00, 0x00, 0xec, 0x00, 0x00, 0x00, 0x04, 0x00, 0x00, 0x00, 0x01, 0x00, 0x00, 0x00, 0x19, 0x00, 0x00, 0x00, 
	0x05, 0x00, 0x00, 0x00, 0x40, 0x00, 0x00, 0x00, 0xcd, 0x00, 0x00, 0x00, 0x6d, 0x6f, 0x64, 0x65, 0x6c, 0x2f, 0x72, 0x65, 
	0x5f, 0x6c, 0x75, 0x5f, 0x31, 0x2f, 0x52, 0x65, 0x6c, 0x75, 0x3b, 0x6d, 0x6f, 0x64, 0x65, 0x6c, 0x2f, 0x62, 0x61, 0x74, 
	0x63, 0x68, 0x5f, 0x6e, 0x6f, 0x72, 0x6d, 0x61, 0x6c, 0x69, 0x7a, 0x61, 0x74, 0x69, 0x6f, 0x6e, 0x5f, 0x31, 0x2f, 0x46, 
	0x75, 0x73, 0x65, 0x64, 0x42, 0x61, 0x74, 0x63, 0x68, 0x4e, 0x6f, 0x72, 0x6d, 0x56, 0x33, 0x3b, 0x6d, 0x6f, 0x64, 0x65, 
	0x6c, 0x2f, 0x64, 0x65, 0x70, 0x74, 0x68, 0x77, 0x69, 0x73, 0x65, 0x5f, 0x63, 0x6f, 0x6e, 0x76, 0x32, 0x64, 0x2f, 0x64, 
	0x65, 0x70, 0x74, 0x68, 0x77, 0x69, 0x73, 0x65, 0x3b, 0x6d, 0x6f, 0x64, 0x65, 0x6c, 0x2f, 0x64, 0x65, 0x70, 0x74, 0x68, 
	0x77, 0x69, 0x73, 0x65, 0x5f, 0x63, 0x6f, 0x6e, 0x76, 0x32, 0x64, 0x2f, 0x42, 0x69, 0x61, 0x73, 0x41, 0x64, 0x64, 0x3b, 
	0x6d, 0x6f, 0x64, 0x65, 0x6c, 0x2f, 0x63, 0x6f, 0x6e, 0x76, 0x32, 0x64, 0x5f, 0x34, 0x2f, 0x43, 0x6f, 0x6e, 0x76, 0x32, 
	0x44, 0x3b, 0x6d, 0x6f, 0x64, 0x65, 0x6c, 0x2f, 0x64, 0x65, 0x70, 0x74, 0x68, 0x77, 0x69, 0x73, 0x65, 0x5f, 0x63, 0x6f, 
	0x6e, 0x76, 0x32, 0x64, 0x2f, 0x42, 0x69, 0x61, 0x73, 0x41, 0x64, 0x64, 0x2f, 0x52, 0x65, 0x61, 0x64, 0x56, 0x61, 0x72, 
	0x69, 0x61, 0x62, 0x6c, 0x65, 0x4f, 0x70, 0x2f, 0x72, 0x65, 0x73, 0x6f, 0x75, 0x72, 0x63, 0x65, 0x31, 0x00, 0x00, 0x00, 
	0x04, 0x00, 0x00, 0x00, 0xff, 0xff, 0xff, 0xff, 0x19, 0x00, 0x00, 0x00, 0x05, 0x00, 0x00, 0x00, 0x40, 0x00, 0x00, 0x00, 
	0x70, 0x5c, 0xff, 0xff, 0x08, 0x00, 0x00, 0x00, 0x0c, 0x00, 0x00, 0x00, 0x01, 0x00, 0x00, 0x00, 0x55, 0xad, 0xfc, 0x3d, 
	0x01, 0x00, 0x00, 0x00, 0x80, 0xff, 0xff, 0xff, 0xff, 0xff, 0xff, 0xff, 0x00, 0x00, 0x0e, 0x00, 0x18, 0x00, 0x08, 0x00, 
	0x0c, 0x00, 0x10, 0x00, 0x07, 0x00, 0x14, 0x00, 0x0e, 0x00, 0x00, 0x00, 0x00, 0x00, 0x00, 0x01, 0x02, 0x00, 0x00, 0x00, 
	0x30, 0x00, 0x00, 0x00, 0x24, 0x00, 0x00, 0x00, 0x10, 0x00, 0x00, 0x00, 0x0c, 0x00, 0x10, 0x00, 0x00, 0x00, 0x04, 0x00, 
	0x08, 0x00, 0x0f, 0x00, 0x0c, 0x00, 0x00, 0x00, 0x02, 0x00, 0x00, 0x00, 0x02, 0x00, 0x00, 0x00, 0x00, 0x00, 0x00, 0x01, 
	0x01, 0x00, 0x00, 0x00, 0x19, 0x00, 0x00, 0x00, 0x03, 0x00, 0x00, 0x00, 0x18, 0x00, 0x00, 0x00, 0x03, 0x00, 0x00, 0x00, 
	0x04, 0x00, 0x00, 0x00, 0xec, 0xfd, 0xff, 0xff, 0x03, 0x00, 0x00, 0x00, 0x00, 0x00, 0x00, 0x03, 0x03, 0x00, 0x00, 0x00, 
	0xe0, 0xfd, 0xff, 0xff, 0x00, 0x00, 0x00, 0x09, 0x14, 0x00, 0x00, 0x00, 0x1a, 0x00, 0x00, 0x00, 0x20, 0x00, 0x00, 0x00, 
	0xe0, 0x00, 0x00, 0x00, 0xc8, 0x00, 0x00, 0x00, 0x04, 0x00, 0x00, 0x00, 0x01, 0x00, 0x00, 0x00, 0x19, 0x00, 0x00, 0x00, 
	0x05, 0x00, 0x00, 0x00, 0x40, 0x00, 0x00, 0x00, 0xa8, 0x00, 0x00, 0x00, 0x6d, 0x6f, 0x64, 0x65, 0x6c, 0x2f, 0x72, 0x65, 
	0x5f, 0x6c, 0x75, 0x2f, 0x52, 0x65, 0x6c, 0x75, 0x3b, 0x6d, 0x6f, 0x64, 0x65, 0x6c, 0x2f, 0x62, 0x61, 0x74, 0x63, 0x68, 
	0x5f, 0x6e, 0x6f, 0x72, 0x6d, 0x61, 0x6c, 0x69, 0x7a, 0x61, 0x74, 0x69, 0x6f, 0x6e, 0x2f, 0x46, 0x75, 0x73, 0x65, 0x64, 
	0x42, 0x61, 0x74, 0x63, 0x68, 0x4e, 0x6f, 0x72, 0x6d, 0x56, 0x33, 0x3b, 0x6d, 0x6f, 0x64, 0x65, 0x6c, 0x2f, 0x63, 0x6f, 
	0x6e, 0x76, 0x32, 0x64, 0x2f, 0x42, 0x69, 0x61, 0x73, 0x41, 0x64, 0x64, 0x2f, 0x52, 0x65, 0x61, 0x64, 0x56, 0x61, 0x72, 
	0x69, 0x61, 0x62, 0x6c, 0x65, 0x4f, 0x70, 0x2f, 0x72, 0x65, 0x73, 0x6f, 0x75, 0x72, 0x63, 0x65, 0x3b, 0x6d, 0x6f, 0x64, 
	0x65, 0x6c, 0x2f, 0x63, 0x6f, 0x6e, 0x76, 0x32, 0x64, 0x2f, 0x42, 0x69, 0x61, 0x73, 0x41, 0x64, 0x64, 0x3b, 0x6d, 0x6f, 
	0x64, 0x65, 0x6c, 0x2f, 0x63, 0x6f, 0x6e, 0x76, 0x32, 0x64, 0x5f, 0x34, 0x2f, 0x43, 0x6f, 0x6e, 0x76, 0x32, 0x44, 0x3b, 
	0x6d, 0x6f, 0x64, 0x65, 0x6c, 0x2f, 0x63, 0x6f, 0x6e, 0x76, 0x32, 0x64, 0x2f, 0x43, 0x6f, 0x6e, 0x76, 0x32, 0x44, 0x31, 
	0x00, 0x00, 0x00, 0x00, 0x04, 0x00, 0x00, 0x00, 0xff, 0xff, 0xff, 0xff, 0x19, 0x00, 0x00, 0x00, 0x05, 0x00, 0x00, 0x00, 
	0x40, 0x00, 0x00, 0x00, 0xf0, 0x5d, 0xff, 0xff, 0x08, 0x00, 0x00, 0x00, 0x0c, 0x00, 0x00, 0x00, 0x01, 0x00, 0x00, 0x00, 
	0xcc, 0x26, 0xe9, 0x3d, 0x01, 0x00, 0x00, 0x00, 0x80, 0xff, 0xff, 0xff, 0xff, 0xff, 0xff, 0xff, 0x00, 0x00, 0x00, 0x00, 
	0x00, 0x00, 0x0a, 0x00, 0x10, 0x00, 0x04, 0x00, 0x08, 0x00, 0x0c, 0x00, 0x0a, 0x00, 0x00, 0x00, 0x01, 0x00, 0x00, 0x00, 
	0x10, 0x00, 0x00, 0x00, 0x04, 0x00, 0x00, 0x00, 0x01, 0x00, 0x00, 0x00, 0x18, 0x00, 0x00, 0x00, 0x02, 0x00, 0x00, 0x00, 
	0x17, 0x00, 0x00, 0x00, 0x01, 0x00, 0x00, 0x00, 0x44, 0xff, 0xff, 0xff, 0x16, 0x00, 0x00, 0x00, 0x00, 0x00, 0x00, 0x16, 
	0x01, 0x00, 0x00, 0x00, 0x38, 0xff, 0xff, 0xff, 0x00, 0x00, 0x00, 0x09, 0x14, 0x00, 0x00, 0x00, 0x19, 0x00, 0x00, 0x00, 
	0x20, 0x00, 0x00, 0x00, 0x50, 0x00, 0x00, 0x00, 0x38, 0x00, 0x00, 0x00, 0x04, 0x00, 0x00, 0x00, 0x01, 0x00, 0x00, 0x00, 
	0x31, 0x00, 0x00, 0x00, 0x0a, 0x00, 0x00, 0x00, 0x01, 0x00, 0x00, 0x00, 0x18, 0x00, 0x00, 0x00, 0x6d, 0x6f, 0x64, 0x65, 
	0x6c, 0x2f, 0x74, 0x66, 0x2e, 0x72, 0x65, 0x73, 0x68, 0x61, 0x70, 0x65, 0x2f, 0x52, 0x65, 0x73, 0x68, 0x61, 0x70, 0x65, 
	0x00, 0x00, 0x00, 0x00, 0x04, 0x00, 0x00, 0x00, 0xff, 0xff, 0xff, 0xff, 0x31, 0x00, 0x00, 0x00, 0x0a, 0x00, 0x00, 0x00, 
	0x01, 0x00, 0x00, 0x00, 0xb8, 0x5e, 0xff, 0xff, 0x08, 0x00, 0x00, 0x00, 0x0c, 0x00, 0x00, 0x00, 0x01, 0x00, 0x00, 0x00, 
	0x27, 0xb8, 0x89, 0x3f, 0x01, 0x00, 0x00, 0x00, 0x66, 0x00, 0x00, 0x00, 0x00, 0x00, 0x00, 0x00, 0x00, 0x00, 0x0a, 0x00, 
	0x0c, 0x00, 0x00, 0x00, 0x04, 0x00, 0x08, 0x00, 0x0a, 0x00, 0x00, 0x00, 0x10, 0x00, 0x00, 0x00, 0x04, 0x00, 0x00, 0x00, 
	0x01, 0x00, 0x00, 0x00, 0x17, 0x00, 0x00, 0x00, 0x01, 0x00, 0x00, 0x00, 0x00, 0x00, 0x00, 0x00, 0x0c, 0x00, 0x10, 0x00, 
	0x0b, 0x00, 0x00, 0x00, 0x0c, 0x00, 0x04, 0x00, 0x0c, 0x00, 0x00, 0x00, 0x72, 0x00, 0x00, 0x00, 0x00, 0x00, 0x00, 0x72, 
	0x01, 0x00, 0x00, 0x00, 0x14, 0x00, 0x1c, 0x00, 0x08, 0x00, 0x07, 0x00, 0x0c, 0x00, 0x10, 0x00, 0x14, 0x00, 0x00, 0x00, 
	0x00, 0x00, 0x18, 0x00, 0x14, 0x00, 0x00, 0x00, 0x00, 0x00, 0x00, 0x09, 0x14, 0x00, 0x00, 0x00, 0x18, 0x00, 0x00, 0x00, 
	0x18, 0x00, 0x00, 0x00, 0x34, 0x00, 0x00, 0x00, 0x24, 0x00, 0x00, 0x00, 0x02, 0x00, 0x00, 0x00, 0x01, 0x00, 0x00, 0x00, 
	0xea, 0x01, 0x00, 0x00, 0x0c, 0x00, 0x00, 0x00, 0x74, 0x66, 0x6c, 0x2e, 0x71, 0x75, 0x61, 0x6e, 0x74, 0x69, 0x7a, 0x65, 
	0x00, 0x00, 0x00, 0x00, 0x02, 0x00, 0x00, 0x00, 0xff, 0xff, 0xff, 0xff, 0xea, 0x01, 0x00, 0x00, 0x78, 0x5f, 0xff, 0xff, 
	0x08, 0x00, 0x00, 0x00, 0x0c, 0x00, 0x00, 0x00, 0x01, 0x00, 0x00, 0x00, 0x27, 0xb8, 0x89, 0x3f, 0x01, 0x00, 0x00, 0x00, 
	0x66, 0x00, 0x00, 0x00, 0x00, 0x00, 0x00, 0x00, 0x00, 0x00, 0x00, 0x00, 0x12, 0x5c, 0xff, 0xff, 0x04, 0x00, 0x00, 0x00, 
	0x10, 0x00, 0x00, 0x00, 0x2f, 0xff, 0xff, 0xff, 0xdc, 0xfe, 0xff, 0xff, 0xe3, 0x00, 0x00, 0x00, 0x0e, 0x01, 0x00, 0x00, 
	0x0a, 0x5c, 0xff, 0xff, 0x00, 0x00, 0x00, 0x02, 0x10, 0x00, 0x00, 0x00, 0x17, 0x00, 0x00, 0x00, 0x10, 0x00, 0x00, 0x00, 
	0x3c, 0x00, 0x00, 0x00, 0x01, 0x00, 0x00, 0x00, 0x04, 0x00, 0x00, 0x00, 0x2b, 0x00, 0x00, 0x00, 0x6d, 0x6f, 0x64, 0x65, 
	0x6c, 0x2f, 0x64, 0x65, 0x6e, 0x73, 0x65, 0x2f, 0x42, 0x69, 0x61, 0x73, 0x41, 0x64, 0x64, 0x2f, 0x52, 0x65, 0x61, 0x64, 
	0x56, 0x61, 0x72, 0x69, 0x61, 0x62, 0x6c, 0x65, 0x4f, 0x70, 0x2f, 0x72, 0x65, 0x73, 0x6f, 0x75, 0x72, 0x63, 0x65, 0x00, 
	0x08, 0x60, 0xff, 0xff, 0x08, 0x00, 0x00, 0x00, 0x0c, 0x00, 0x00, 0x00, 0x01, 0x00, 0x00, 0x00, 0xbb, 0x17, 0xb2, 0x39, 
	0x01, 0x00, 0x00, 0x00, 0x00, 0x00, 0x00, 0x00, 0x00, 0x00, 0x00, 0x00, 0x9e, 0x5c, 0xff, 0xff, 0x04, 0x00, 0x00, 0x00, 
	0x00, 0x01, 0x00, 0x00, 0x00, 0x91, 0xf7, 0xe2, 0x9c, 0x3e, 0x2e, 0xcd, 0xb3, 0xa7, 0xc9, 0x3a, 0x17, 0x8b, 0x9e, 0xa2, 
	0x39, 0xcd, 0xc4, 0x3b, 0x4c, 0xe1, 0x95, 0x26, 0x40, 0xdf, 0x9a, 0x9f, 0x18, 0xef, 0xde, 0xbd, 0xdb, 0xc8, 0x19, 0x57, 
	0x92, 0x30, 0x8e, 0x91, 0xa1, 0x1d, 0xcf, 0xd8, 0x00, 0x57, 0x81, 0xe4, 0xd1, 0xfc, 0x81, 0xd5, 0xb9, 0x3f, 0xd5, 0xd1, 
	0x05, 0x96, 0xe6, 0xc1, 0xa6, 0xaf, 0xdf, 0xd3, 0x43, 0x1f, 0x26, 0xb4, 0xc2, 0xed, 0xb5, 0x52, 0x0f, 0x51, 0x3f, 0xfe, 
	0xde, 0x26, 0xdb, 0xd9, 0xe5, 0xf9, 0x50, 0xcd, 0xf8, 0x16, 0xbe, 0xeb, 0x33, 0xcb, 0xbf, 0x32, 0xb6, 0xc9, 0xff, 0xd6, 
	0x4d, 0x02, 0x1f, 0xdc, 0xd9, 0xda, 0x20, 0x54, 0xd3, 0xd1, 0xee, 0x0f, 0xdc, 0xed, 0x46, 0x07, 0xde, 0xeb, 0x3c, 0xf4, 
	0xff, 0x27, 0xbd, 0xcf, 0xc3, 0x06, 0x24, 0x29, 0x15, 0x01, 0xf7, 0x0c, 0x31, 0x4e, 0xc6, 0x5d, 0xeb, 0x35, 0xf5, 0x0f, 
	0x0c, 0xf7, 0xd2, 0x5a, 0xca, 0xd5, 0x57, 0xbf, 0xe6, 0x3f, 0xd4, 0x42, 0xde, 0x49, 0xe2, 0xd4, 0xe2, 0x63, 0x27, 0xc9, 
	0x5a, 0x61, 0x06, 0xda, 0xd1, 0xd1, 0xe6, 0xe1, 0xc9, 0xe7, 0x45, 0xd0, 0x35, 0xe3, 0xc5, 0x61, 0xf0, 0xd7, 0x2d, 0x66, 
	0x62, 0x53, 0xf8, 0x56, 0xdf, 0xd1, 0x2d, 0xc8, 0x6f, 0xd0, 0xce, 0xc3, 0xdd, 0x57, 0x6b, 0xce, 0xcb, 0xb3, 0x45, 0xf5, 
	0x5e, 0xde, 0x60, 0xca, 0x4c, 0xca, 0xd0, 0xd6, 0x4c, 0x50, 0xf8, 0x61, 0xd7, 0xb8, 0xc3, 0xe4, 0xe5, 0xa9, 0x2e, 0xf2, 
	0xee, 0xda, 0xcf, 0xfb, 0x37, 0x40, 0x65, 0x28, 0xe3, 0x19, 0xc9, 0xe8, 0x60, 0xf0, 0x22, 0xe6, 0xcd, 0x41, 0x63, 0xb4, 
	0x6b, 0xef, 0x14, 0x16, 0x06, 0xdb, 0x00, 0xfe, 0x69, 0xc3, 0x2d, 0x23, 0x12, 0x56, 0xd0, 0xee, 0xcc, 0xfa, 0xd0, 0x64, 
	0x86, 0x5d, 0xff, 0xff, 0x00, 0x00, 0x00, 0x09, 0x10, 0x00, 0x00, 0x00, 0x16, 0x00, 0x00, 0x00, 0x14, 0x00, 0x00, 0x00, 
	0x28, 0x00, 0x00, 0x00, 0x02, 0x00, 0x00, 0x00, 0x04, 0x00, 0x00, 0x00, 0x40, 0x00, 0x00, 0x00, 0x12, 0x00, 0x00, 0x00, 
	0x6d, 0x6f, 0x64, 0x65, 0x6c, 0x2f, 0x64, 0x65, 0x6e, 0x73, 0x65, 0x2f, 0x4d, 0x61, 0x74, 0x4d, 0x75, 0x6c, 0x00, 0x00, 
	0x70, 0x61, 0xff, 0xff, 0x08, 0x00, 0x00, 0x00, 0x0c, 0x00, 0x00, 0x00, 0x01, 0x00, 0x00, 0x00, 0x61, 0x92, 0xb5, 0x3b, 
	0x01, 0x00, 0x00, 0x00, 0x00, 0x00, 0x00, 0x00, 0x00, 0x00, 0x00, 0x00, 0x06, 0x5e, 0xff, 0xff, 0x04, 0x00, 0x00, 0x00, 
	0x00, 0x01, 0x00, 0x00, 0xc3, 0x02, 0x00, 0x00, 0xe2, 0x12, 0x00, 0x00, 0x43, 0x07, 0x00, 0x00, 0xa6, 0x06, 0x00, 0x00, 
	0x26, 0x0e, 0x00, 0x00, 0x44, 0xf4, 0xff, 0xff, 0xb5, 0xfc, 0xff, 0xff, 0xa3, 0xfe, 0xff, 0xff, 0x57, 0x18, 0x00, 0x00, 
	0xb1, 0x08, 0x00, 0x00, 0xfb, 0x00, 0x00, 0x00, 0x31, 0xfd, 0xff, 0xff, 0x74, 0xfe, 0xff, 0xff, 0x91, 0x0e, 0x00, 0x00, 
	0x4a, 0x13, 0x00, 0x00, 0xd8, 0x0c, 0x00, 0x00, 0x7f, 0xed, 0xff, 0xff, 0x41, 0x07, 0x00, 0x00, 0xb4, 0x02, 0x00, 0x00, 
	0x8e, 0xf1, 0xff, 0xff, 0x3a, 0xe7, 0xff, 0xff, 0x5f, 0x05, 0x00, 0x00, 0x23, 0x12, 0x00, 0x00, 0xb1, 0xf8, 0xff, 0xff, 
	0x3f, 0x02, 0x00, 0x00, 0x3c, 0x01, 0x00, 0x00, 0x20, 0x0d, 0x00, 0x00, 0x8e, 0x07, 0x00, 0x00, 0xc9, 0xe7, 0xff, 0xff, 
	0x2f, 0x01, 0x00, 0x00, 0x79, 0x0f, 0x00, 0x00, 0xa0, 0x05, 0x00, 0x00, 0xfa, 0xfe, 0xff, 0xff, 0x5e, 0x08, 0x00, 0x00, 
	0xe4, 0xfd, 0xff, 0xff, 0xb8, 0xf3, 0xff, 0xff, 0x8a, 0x14, 0x00, 0x00, 0x97, 0xf0, 0xff, 0xff, 0x54, 0x14, 0x00, 0x00, 
	0xb2, 0x04, 0x00, 0x00, 0xa0, 0x0a, 0x00, 0x00, 0xfa, 0x00, 0x00, 0x00, 0xfb, 0x08, 0x00, 0x00, 0xa7, 0x04, 0x00, 0x00, 
	0x8b, 0x00, 0x00, 0x00, 0x8c, 0xed, 0xff, 0xff, 0x4c, 0x20, 0x00, 0x00, 0x48, 0x0c, 0x00, 0x00, 0xc8, 0x00, 0x00, 0x00, 
	0x39, 0xfc, 0xff, 0xff, 0x29, 0x18, 0x00, 0x00, 0x10, 0x06, 0x00, 0x00, 0x23, 0x0d, 0x00, 0x00, 0xd6, 0xfb, 0xff, 0xff, 
	0x8e, 0x0b, 0x00, 0x00, 0x82, 0x0d, 0x00, 0x00, 0x39, 0x0d, 0x00, 0x00, 0x5d, 0x0c, 0x00, 0x00, 0xff, 0xfe, 0xff, 0xff, 
	0x51, 0x0d, 0x00, 0x00, 0x46, 0x06, 0x00, 0x00, 0xf1, 0x0a, 0x00, 0x00, 0x39, 0x06, 0x00, 0x00, 0xcf, 0x02, 0x00, 0x00, 
	0xee, 0x5e, 0xff, 0xff, 0x00, 0x00, 0x00, 0x02, 0x10, 0x00, 0x00, 0x00, 0x15, 0x00, 0x00, 0x00, 0x10, 0x00, 0x00, 0x00, 
	0xac, 0x00, 0x00, 0x00, 0x01, 0x00, 0x00, 0x00, 0x40, 0x00, 0x00, 0x00, 0x9b, 0x00, 0x00, 0x00, 0x6d, 0x6f, 0x64, 0x65, 
	0x6c, 0x2f, 0x72, 0x65, 0x5f, 0x6c, 0x75, 0x5f, 0x38, 0x2f, 0x52, 0x65, 0x6c, 0x75, 0x3b, 0x6d, 0x6f, 0x64, 0x65, 0x6c, 
	0x2f, 0x62, 0x61, 0x74, 0x63, 0x68, 0x5f, 0x6e, 0x6f, 0x72, 0x6d, 0x61, 0x6c, 0x69, 0x7a, 0x61, 0x74, 0x69, 0x6f, 0x6e, 
	0x5f, 0x38, 0x2f, 0x46, 0x75, 0x73, 0x65, 0x64, 0x42, 0x61, 0x74, 0x63, 0x68, 0x4e, 0x6f, 0x72, 0x6d, 0x56, 0x33, 0x3b, 
	0x6d, 0x6f, 0x64, 0x65, 0x6c, 0x2f, 0x63, 0x6f, 0x6e, 0x76, 0x32, 0x64, 0x5f, 0x34, 0x2f, 0x42, 0x69, 0x61, 0x73, 0x41, 
	0x64, 0x64, 0x2f, 0x52, 0x65, 0x61, 0x64, 0x56, 0x61, 0x72, 0x69, 0x61, 0x62, 0x6c, 0x65, 0x4f, 0x70, 0x2f, 0x72, 0x65, 
	0x73, 0x6f, 0x75, 0x72, 0x63, 0x65, 0x3b, 0x6d, 0x6f, 0x64, 0x65, 0x6c, 0x2f, 0x63, 0x6f, 0x6e, 0x76, 0x32, 0x64, 0x5f, 
	0x34, 0x2f, 0x42, 0x69, 0x61, 0x73, 0x41, 0x64, 0x64, 0x3b, 0x6d, 0x6f, 0x64, 0x65, 0x6c, 0x2f, 0x63, 0x6f, 0x6e, 0x76, 
	0x32, 0x64, 0x5f, 0x34, 0x2f, 0x43, 0x6f, 0x6e, 0x76, 0x32, 0x44, 0x00, 0x5c, 0x63, 0xff, 0xff, 0x08, 0x00, 0x00, 0x00, 
	0x08, 0x01, 0x00, 0x00, 0x40, 0x00, 0x00, 0x00, 0x59, 0x0c, 0xa9, 0x39, 0xe3, 0xc3, 0x65, 0x39, 0xaa, 0xc1, 0x81, 0x39, 
	0x8d, 0x32, 0x77, 0x39, 0x85, 0x01, 0x9d, 0x39, 0xc9, 0xc3, 0x8e, 0x39, 0x04, 0x8a, 0xa4, 0x39, 0x4d, 0xd2, 0xe3, 0x39, 
	0x88, 0x5b, 0xc8, 0x39, 0x4a, 0x20, 0xd8, 0x39, 0x81, 0x1b, 0xb8, 0x39, 0x8e, 0xae, 0x6a, 0x39, 0x11, 0x52, 0x95, 0x39, 
	0xa9, 0x1e, 0x8b, 0x39, 0x10, 0x49, 0x7b, 0x39, 0xcc, 0x2d, 0x4a, 0x39, 0x82, 0x10, 0x47, 0x39, 0xe1, 0x7f, 0x43, 0x39, 
	0xce, 0x52, 0xcd, 0x39, 0x29, 0xa0, 0xa8, 0x39, 0x8b, 0xaa, 0x14, 0x39, 0xc6, 0x89, 0x59, 0x39, 0x74, 0x22, 0xeb, 0x39, 
	0x75, 0xa5, 0x8d, 0x39, 0x8f, 0x1b, 0x7d, 0x39, 0x91, 0xd8, 0x82, 0x39, 0xf0, 0xb2, 0x81, 0x39, 0xbc, 0x10, 0xbd, 0x39, 
	0xe6, 0xc4, 0xb5, 0x39, 0xd5, 0xfe, 0x72, 0x39, 0x60, 0x1f, 0x9a, 0x39, 0x1b, 0x5e, 0x87, 0x39, 0x97, 0x65, 0xf3, 0x39, 
	0xd2, 0x9a, 0x68, 0x39, 0xac, 0x32, 0x8c, 0x39, 0xea, 0xec, 0x45, 0x39, 0x94, 0xbd, 0x8f, 0x39, 0xdd, 0xf0, 0x34, 0x39, 
	0x62, 0xa4, 0x1a, 0x3a, 0x65, 0x7c, 0xde, 0x39, 0x72, 0x01, 0x5e, 0x39, 0xd4, 0x3b, 0x9a, 0x39, 0xa5, 0x37, 0x49, 0x39, 
	0x3b, 0xea, 0x86, 0x39, 0x4e, 0x93, 0x8e, 0x39, 0xc9, 0x13, 0x60, 0x39, 0x97, 0xc3, 0xd3, 0x39, 0x27, 0xf8, 0x78, 0x39, 
	0x50, 0x66, 0x66, 0x39, 0x7d, 0xfa, 0x83, 0x39, 0x4b, 0xb9, 0xa6, 0x39, 0x77, 0x13, 0x9a, 0x39, 0xd0, 0x33, 0x92, 0x39, 
	0xf3, 0x3b, 0xd3, 0x39, 0x6e, 0x1a, 0x04, 0x3a, 0xf7, 0x9c, 0x7a, 0x39, 0x19, 0xe6, 0x53, 0x39, 0x13, 0x14, 0x5f, 0x39, 
	0x2e, 0x23, 0xb3, 0x39, 0xee, 0xa6, 0x9c, 0x39, 0x3e, 0xcc, 0xaf, 0x39, 0x06, 0x60, 0x88, 0x39, 0x21, 0x3a, 0x83, 0x39, 
	0xb1, 0x7a, 0x56, 0x39, 0x40, 0x00, 0x00, 0x00, 0x00, 0x00, 0x00, 0x00, 0x00, 0x00, 0x00, 0x00, 0x00, 0x00, 0x00, 0x00, 
	0x00, 0x00, 0x00, 0x00, 0x00, 0x00, 0x00, 0x00, 0x00, 0x00, 0x00, 0x00, 0x00, 0x00, 0x00, 0x00, 0x00, 0x00, 0x00, 0x00, 
	0x00, 0x00, 0x00, 0x00, 0x00, 0x00, 0x00, 0x00, 0x00, 0x00, 0x00, 0x00, 0x00, 0x00, 0x00, 0x00, 0x00, 0x00, 0x00, 0x00, 
	0x00, 0x00, 0x00, 0x00, 0x00, 0x00, 0x00, 0x00, 0x00, 0x00, 0x00, 0x00, 0x00, 0x00, 0x00, 0x00, 0x00, 0x00, 0x00, 0x00, 
	0x00, 0x00, 0x00, 0x00, 0x00, 0x00, 0x00, 0x00, 0x00, 0x00, 0x00, 0x00, 0x00, 0x00, 0x00, 0x00, 0x00, 0x00, 0x00, 0x00, 
	0x00, 0x00, 0x00, 0x00, 0x00, 0x00, 0x00, 0x00, 0x00, 0x00, 0x00, 0x00, 0x00, 0x00, 0x00, 0x00, 0x00, 0x00, 0x00, 0x00, 
	0x00, 0x00, 0x00, 0x00, 0x00, 0x00, 0x00, 0x00, 0x00, 0x00, 0x00, 0x00, 0x00, 0x00, 0x00, 0x00, 0x00, 0x00, 0x00, 0x00, 
	0x00, 0x00, 0x00, 0x00, 0x00, 0x00, 0x00, 0x00, 0x00, 0x00, 0x00, 0x00, 0x00, 0x00, 0x00, 0x00, 0x00, 0x00, 0x00, 0x00, 
	0x00, 0x00, 0x00, 0x00, 0x00, 0x00, 0x00, 0x00, 0x00, 0x00, 0x00, 0x00, 0x00, 0x00, 0x00, 0x00, 0x00, 0x00, 0x00, 0x00, 
	0x00, 0x00, 0x00, 0x00, 0x00, 0x00, 0x00, 0x00, 0x00, 0x00, 0x00, 0x00, 0x00, 0x00, 0x00, 0x00, 0x00, 0x00, 0x00, 0x00, 
	0x00, 0x00, 0x00, 0x00, 0x00, 0x00, 0x00, 0x00, 0x00, 0x00, 0x00, 0x00, 0x00, 0x00, 0x00, 0x00, 0x00, 0x00, 0x00, 0x00, 
	0x00, 0x00, 0x00, 0x00, 0x00, 0x00, 0x00, 0x00, 0x00, 0x00, 0x00, 0x00, 0x00, 0x00, 0x00, 0x00, 0x00, 0x00, 0x00, 0x00, 
	0x00, 0x00, 0x00, 0x00, 0x00, 0x00, 0x00, 0x00, 0x00, 0x00, 0x00, 0x00, 0x00, 0x00, 0x00, 0x00, 0x00, 0x00, 0x00, 0x00, 
	0x00, 0x00, 0x00, 0x00, 0x00, 0x00, 0x00, 0x00, 0x00, 0x00, 0x00, 0x00, 0x00, 0x00, 0x00, 0x00, 0x00, 0x00, 0x00, 0x00, 
	0x00, 0x00, 0x00, 0x00, 0x00, 0x00, 0x00, 0x00, 0x00, 0x00, 0x00, 0x00, 0x00, 0x00, 0x00, 0x00, 0x00, 0x00, 0x00, 0x00, 
	0x00, 0x00, 0x00, 0x00, 0x00, 0x00, 0x00, 0x00, 0x00, 0x00, 0x00, 0x00, 0x00, 0x00, 0x00, 0x00, 0x00, 0x00, 0x00, 0x00, 
	0x00, 0x00, 0x00, 0x00, 0x00, 0x00, 0x00, 0x00, 0x00, 0x00, 0x00, 0x00, 0x00, 0x00, 0x00, 0x00, 0x00, 0x00, 0x00, 0x00, 
	0x00, 0x00, 0x00, 0x00, 0x00, 0x00, 0x00, 0x00, 0x00, 0x00, 0x00, 0x00, 0x00, 0x00, 0x00, 0x00, 0x00, 0x00, 0x00, 0x00, 
	0x00, 0x00, 0x00, 0x00, 0x00, 0x00, 0x00, 0x00, 0x00, 0x00, 0x00, 0x00, 0x00, 0x00, 0x00, 0x00, 0x00, 0x00, 0x00, 0x00, 
	0x00, 0x00, 0x00, 0x00, 0x00, 0x00, 0x00, 0x00, 0x00, 0x00, 0x00, 0x00, 0x00, 0x00, 0x00, 0x00, 0x00, 0x00, 0x00, 0x00, 
	0x00, 0x00, 0x00, 0x00, 0x00, 0x00, 0x00, 0x00, 0x00, 0x00, 0x00, 0x00, 0x00, 0x00, 0x00, 0x00, 0x00, 0x00, 0x00, 0x00, 
	0x00, 0x00, 0x00, 0x00, 0x00, 0x00, 0x00, 0x00, 0x00, 0x00, 0x00, 0x00, 0x00, 0x00, 0x00, 0x00, 0x00, 0x00, 0x00, 0x00, 
	0x00, 0x00, 0x00, 0x00, 0x00, 0x00, 0x00, 0x00, 0x00, 0x00, 0x00, 0x00, 0x00, 0x00, 0x00, 0x00, 0x00, 0x00, 0x00, 0x00, 
	0x00, 0x00, 0x00, 0x00, 0x00, 0x00, 0x00, 0x00, 0x00, 0x00, 0x00, 0x00, 0x00, 0x00, 0x00, 0x00, 0x00, 0x00, 0x00, 0x00, 
	0x00, 0x00, 0x00, 0x00, 0x00, 0x00, 0x00, 0x00, 0x00, 0x00, 0x00, 0x00, 0x00, 0x00, 0x00, 0x00, 0x00, 0x00, 0x00, 0x00, 
	0x00, 0x00, 0x00, 0x00, 0x00, 0x00, 0x00, 0x00, 0x00, 0x00, 0x00, 0x00, 0x00, 0x00, 0x00, 0x00, 0x00, 0x00, 0x00, 0x00, 
	0xe6, 0x62, 0xff, 0xff, 0x04, 0x00, 0x00, 0x00, 0x00, 0x10, 0x00, 0x00, 0xf8, 0xdc, 0xaa, 0xd5, 0x36, 0xdf, 0xf8, 0xe5, 
	0xdf, 0xf4, 0xa7, 0xf6, 0x29, 0x08, 0xca, 0x39, 0x17, 0xcd, 0xf5, 0x45, 0x2a, 0x20, 0x15, 0x7f, 0x2a, 0x00, 0x0a, 0xb7, 
	0x1d, 0xe4, 0x0e, 0xfc, 0xf0, 0x58, 0x31, 0xd3, 0x19, 0xe1, 0xf3, 0x18, 0xea, 0x36, 0x10, 0x15, 0xea, 0xce, 0xf9, 0x17, 
	0xeb, 0xc3, 0xf0, 0x01, 0xec, 0x35, 0xca, 0x37, 0xe8, 0x09, 0xb6, 0x05, 0x14, 0xdc, 0xa3, 0x1b, 0x47, 0xed, 0xa8, 0xba, 
	0xfe, 0xf5, 0xc9, 0x9f, 0x34, 0xee, 0xcc, 0xb3, 0xe7, 0xc2, 0xcd, 0xb7, 0xbf, 0x48, 0x7f, 0x39, 0x40, 0x0e, 0x2c, 0x37, 
	0x43, 0xe6, 0x40, 0xf8, 0xe1, 0x0a, 0xe8, 0x1e, 0x3f, 0x2a, 0x16, 0xfe, 0x2b, 0x30, 0xac, 0x1d, 0xe8, 0xe5, 0xc7, 0xd8, 
	0xda, 0x49, 0xb2, 0x21, 0xd4, 0xb7, 0x2b, 0x41, 0x1e, 0xc6, 0x41, 0xe2, 0x25, 0x02, 0x9b, 0xfd, 0xba, 0x33, 0x8f, 0x97, 
	0xd6, 0x04, 0x35, 0xd5, 0xe3, 0x04, 0x29, 0xdc, 0xf8, 0x6a, 0xcc, 0x36, 0xfb, 0x3b, 0x10, 0xe3, 0xe8, 0x4c, 0xd6, 0xf1, 
	0x17, 0xe2, 0xde, 0x44, 0xe9, 0xec, 0x81, 0xd5, 0xc8, 0xf8, 0x0e, 0xe1, 0x3a, 0x0c, 0x20, 0xfb, 0x39, 0x24, 0x0c, 0x25, 
	0x52, 0xc2, 0xff, 0xbd, 0x10, 0x24, 0x38, 0x19, 0x41, 0xf8, 0xe9, 0xc8, 0xd8, 0xe0, 0xb0, 0x10, 0x1f, 0xd7, 0xd2, 0x8f, 
	0xc0, 0x28, 0x58, 0xde, 0x2e, 0xcd, 0xd0, 0xde, 0xe8, 0x1b, 0xcb, 0x09, 0xe8, 0xea, 0x5a, 0xe6, 0x44, 0xff, 0x26, 0xfd, 
	0x42, 0xc8, 0x21, 0x11, 0xf3, 0x3c, 0xf9, 0xc5, 0x17, 0x06, 0x05, 0xc3, 0x48, 0x24, 0xe5, 0xdf, 0xc3, 0xab, 0x40, 0x18, 
	0xf4, 0x3d, 0x03, 0x06, 0x96, 0xe2, 0x16, 0xc5, 0x36, 0xd1, 0xf2, 0x63, 0x36, 0x2f, 0x1d, 0x6c, 0x01, 0xc0, 0xda, 0xd0, 
	0xbf, 0x2a, 0x35, 0xbe, 0xf1, 0x14, 0xc7, 0x81, 0x30, 0xf8, 0xf5, 0x2b, 0xcd, 0xdb, 0xf6, 0xbd, 0x64, 0x1a, 0x10, 0x41, 
	0xf0, 0x38, 0x3c, 0xf5, 0xc0, 0x37, 0xfb, 0xe6, 0x22, 0xa1, 0xd4, 0xbe, 0xeb, 0xec, 0x0a, 0xfc, 0x17, 0x33, 0xd8, 0x08, 
	0x1a, 0x15, 0xe3, 0xfa, 0x1a, 0xd8, 0xdb, 0xc2, 0xc9, 0xd0, 0xd5, 0xcb, 0xd2, 0x09, 0x39, 0x00, 0x63, 0xea, 0x26, 0xd8, 
	0xed, 0xd5, 0x1d, 0xf4, 0x3f, 0xe7, 0x06, 0xb2, 0x81, 0xdf, 0x57, 0xd4, 0xa2, 0x07, 0x4b, 0x3a, 0x0c, 0x45, 0xd9, 0xe5, 
	0xc8, 0x24, 0x04, 0x18, 0x53, 0x44, 0xe6, 0xc9, 0xcd, 0x19, 0x03, 0xd5, 0xfa, 0x3b, 0x7f, 0xf7, 0x17, 0xb6, 0x47, 0xf1, 
	0x17, 0x24, 0x3d, 0xc5, 0x3b, 0x84, 0x24, 0x12, 0x4d, 0x0a, 0xdc, 0x0b, 0x41, 0xd7, 0xcf, 0xb6, 0xd1, 0xc6, 0x00, 0x19, 
	0x01, 0xe4, 0x5d, 0x15, 0xe0, 0x03, 0x16, 0xa9, 0x11, 0x4a, 0x35, 0xfe, 0x30, 0xe0, 0xfa, 0xed, 0xe0, 0xde, 0xfd, 0x0c, 
	0x2e, 0xf7, 0xd3, 0xbd, 0xcc, 0x64, 0x12, 0x37, 0xd9, 0x32, 0x28, 0x22, 0xe8, 0xc8, 0xcc, 0x39, 0x1e, 0x10, 0x2b, 0xc8, 
	0x2b, 0x25, 0x18, 0x37, 0x3a, 0x44, 0x56, 0xf9, 0xe7, 0x52, 0x1f, 0x0d, 0xc9, 0xbc, 0x34, 0xf6, 0xe7, 0xed, 0x0d, 0xd1, 
	0x16, 0x34, 0x13, 0xe6, 0x2e, 0xf8, 0x47, 0xf9, 0xf0, 0xf5, 0x2b, 0xf1, 0x2e, 0xb4, 0x2a, 0x81, 0xe5, 0xef, 0x1e, 0xbe, 
	0xe5, 0xf2, 0xed, 0x14, 0x21, 0xf5, 0xed, 0xe6, 0xca, 0x41, 0xdd, 0xaf, 0x37, 0xe9, 0x07, 0xf7, 0xe1, 0xf9, 0x36, 0x23, 
	0x13, 0x03, 0xf0, 0x7f, 0xe8, 0xe7, 0xfa, 0xdc, 0xf3, 0xf4, 0xe7, 0xe8, 0x1c, 0x2f, 0x07, 0x05, 0xd7, 0xfe, 0x05, 0x15, 
	0xd9, 0x10, 0xe8, 0xbc, 0x16, 0x08, 0xdc, 0xfa, 0xf6, 0x1a, 0xfb, 0x14, 0x09, 0x0d, 0xff, 0xd7, 0xf5, 0xf2, 0xcc, 0x26, 
	0x2c, 0x0f, 0x0a, 0x2a, 0x22, 0xfb, 0xe3, 0xe4, 0xd3, 0x0e, 0x3a, 0x08, 0xfa, 0x0f, 0x10, 0x2f, 0x16, 0x3b, 0x19, 0xd2, 
	0x1c, 0xd6, 0xc9, 0x27, 0x2a, 0xb9, 0x09, 0xbf, 0xa2, 0x15, 0x90, 0x07, 0xbf, 0x4b, 0x0f, 0x38, 0x0f, 0x1b, 0xb6, 0xa8, 
	0xf7, 0x17, 0xab, 0x81, 0xf7, 0xb9, 0x1e, 0xe1, 0x11, 0x0d, 0xde, 0xee, 0x4f, 0x11, 0xd1, 0xb3, 0xa5, 0x55, 0x0f, 0x45, 
	0xf4, 0xc9, 0xd1, 0xcc, 0xfa, 0xde, 0xf6, 0xbc, 0xe5, 0xfa, 0xcc, 0x2e, 0x1b, 0xf0, 0xea, 0x03, 0x27, 0x29, 0xac, 0xf3, 
	0x3f, 0x22, 0xf1, 0xda, 0xea, 0xff, 0x26, 0xc6, 0x1c, 0x34, 0xf1, 0x7f, 0xde, 0xe3, 0xdf, 0xd7, 0xf8, 0xf6, 0xea, 0xf0, 
	0x07, 0x39, 0x10, 0x06, 0xf8, 0x1c, 0xeb, 0x01, 0xe2, 0x24, 0xb0, 0xcd, 0xe5, 0xf5, 0xe9, 0xeb, 0xe9, 0x2f, 0xe0, 0xf7, 
	0x16, 0xd7, 0xe9, 0xcf, 0x0b, 0xec, 0xd8, 0xfe, 0xf6, 0xb6, 0xb6, 0x16, 0xf8, 0xde, 0xc6, 0xe1, 0x30, 0xde, 0x2b, 0x2b, 
	0xf3, 0x0c, 0xd8, 0xd6, 0x14, 0x11, 0xd5, 0x08, 0x29, 0x43, 0x44, 0xc3, 0xfd, 0x0e, 0xfc, 0x7f, 0xe7, 0xfb, 0xce, 0x03, 
	0x07, 0xed, 0x15, 0xbd, 0xc8, 0x41, 0xfe, 0xe0, 0x32, 0x3a, 0xfc, 0x0a, 0x07, 0x18, 0xec, 0x22, 0xdf, 0xc0, 0xf4, 0x0f, 
	0xf1, 0x0f, 0xc8, 0x00, 0x0c, 0xce, 0x20, 0xc9, 0x3d, 0x1e, 0xfc, 0xfd, 0xec, 0xf0, 0xc6, 0x1e, 0x1f, 0xcf, 0x2e, 0x32, 
	0xb9, 0xed, 0x34, 0xaa, 0x01, 0x2e, 0x47, 0xd0, 0x0b, 0xc4, 0xc2, 0xc3, 0x35, 0x1a, 0xe1, 0xd3, 0x13, 0x27, 0x6b, 0xfa, 
	0x6d, 0x16, 0x1e, 0x55, 0xda, 0x0c, 0x3f, 0xec, 0xa9, 0xba, 0x14, 0xbc, 0x1e, 0xb3, 0x24, 0xd1, 0x2d, 0xa5, 0xf4, 0xb2, 
	0x18, 0x1d, 0x14, 0x73, 0xdf, 0xb1, 0x52, 0x7f, 0x27, 0xc7, 0x10, 0xf7, 0xe4, 0x2e, 0x1c, 0xf9, 0xd9, 0xd6, 0xe8, 0x82, 
	0xf6, 0xce, 0x72, 0x1e, 0xe6, 0xfc, 0x1d, 0x0b, 0x21, 0x39, 0xf3, 0x44, 0xfc, 0xfd, 0x3d, 0xe6, 0x37, 0x31, 0x0e, 0xd9, 
	0xe4, 0x16, 0xea, 0xe6, 0xe9, 0xf1, 0xc0, 0xf8, 0x4e, 0xf5, 0x4c, 0xe8, 0x41, 0x03, 0xf3, 0xde, 0xc5, 0xf9, 0xc0, 0xf6, 
	0xc4, 0xdb, 0xe3, 0x33, 0xfe, 0xcb, 0x2f, 0x07, 0x3b, 0xc7, 0xdc, 0x1f, 0x33, 0xed, 0xd8, 0xf4, 0x14, 0xd9, 0xde, 0x81, 
	0x02, 0xda, 0x5d, 0x08, 0x24, 0xa5, 0x0d, 0x3f, 0xe8, 0xdf, 0xed, 0xee, 0xb7, 0x6b, 0x9d, 0x24, 0xd8, 0xd1, 0xbd, 0x0f, 
	0x36, 0xd8, 0x2d, 0xbb, 0x5c, 0xcd, 0x0b, 0x15, 0xf4, 0x17, 0x8a, 0xc6, 0xad, 0x26, 0xf4, 0xe4, 0xfc, 0x4d, 0xc1, 0x08, 
	0xc3, 0xb3, 0xa3, 0xc7, 0x08, 0xec, 0x32, 0x46, 0x21, 0x31, 0x2d, 0xd4, 0x70, 0x0b, 0xc6, 0xfd, 0x1d, 0x19, 0x22, 0x0f, 
	0x24, 0xaa, 0xe0, 0xe0, 0x81, 0x10, 0x38, 0x18, 0x15, 0xd3, 0x97, 0x20, 0xb9, 0x18, 0x46, 0x81, 0x01, 0xe3, 0xce, 0x52, 
	0x37, 0x3d, 0xc1, 0x99, 0x2d, 0xc4, 0x05, 0xe7, 0x1f, 0x69, 0xe1, 0xb3, 0x14, 0x42, 0xcf, 0xda, 0xff, 0x03, 0xd3, 0x39, 
	0xff, 0xb5, 0x24, 0x09, 0xe1, 0x30, 0x21, 0x26, 0x99, 0xdc, 0x3b, 0xbc, 0x14, 0x03, 0x30, 0x47, 0x34, 0x1c, 0xd7, 0x2a, 
	0xb8, 0xdf, 0x07, 0xd2, 0xec, 0x42, 0x0b, 0xe3, 0xc8, 0x29, 0xbb, 0xce, 0xa9, 0x0e, 0x62, 0x06, 0x0b, 0xc8, 0x00, 0x2d, 
	0xc8, 0x3d, 0xa6, 0x60, 0xdf, 0x65, 0x29, 0x03, 0xf3, 0x53, 0xbe, 0x3f, 0xed, 0x0e, 0x29, 0xb1, 0xf1, 0xc4, 0x19, 0x46, 
	0x21, 0xe6, 0xe3, 0x29, 0x21, 0x00, 0xc5, 0xc2, 0x0e, 0xa6, 0xbc, 0x09, 0xd3, 0x4a, 0x3f, 0x42, 0x27, 0xcd, 0x2f, 0xd2, 
	0x67, 0xe9, 0xcf, 0xc2, 0x15, 0x49, 0xb0, 0x0d, 0xaf, 0xfe, 0xb4, 0x98, 0x81, 0x1d, 0x7d, 0x90, 0xbf, 0xcf, 0xe3, 0xd4, 
	0xbe, 0x15, 0xc9, 0x27, 0xf3, 0x58, 0xd9, 0x72, 0xd0, 0xf3, 0x23, 0xda, 0xd0, 0x60, 0x37, 0xcf, 0xdd, 0xf9, 0x61, 0xf3, 
	0xd7, 0x3e, 0x22, 0xfb, 0x0a, 0x01, 0x7f, 0x0f, 0x46, 0x89, 0x36, 0x43, 0x30, 0x1d, 0x32, 0x67, 0x55, 0xb9, 0xe6, 0xdf, 
	0xce, 0xc9, 0xa7, 0xe5, 0xee, 0x08, 0x0d, 0xf8, 0x50, 0xc8, 0x51, 0x14, 0xe1, 0x73, 0x4b, 0x2a, 0x36, 0x70, 0xe1, 0x28, 
	0xd8, 0xb4, 0x89, 0x57, 0x50, 0xf8, 0x50, 0xe9, 0x3c, 0xb2, 0x18, 0xb1, 0x66, 0x25, 0xcd, 0xce, 0xaa, 0xb0, 0x77, 0xd7, 
	0xe2, 0x16, 0x4c, 0x0d, 0x5b, 0x03, 0x43, 0xe9, 0x3e, 0x40, 0xe0, 0xd4, 0xd4, 0xee, 0x64, 0xe7, 0x03, 0x04, 0xc7, 0x3f, 
	0x9f, 0x5d, 0x28, 0x2b, 0x00, 0xac, 0x21, 0x01, 0x0e, 0xbb, 0x2a, 0x74, 0x30, 0xb7, 0xb1, 0xf8, 0x1b, 0x12, 0xf6, 0xf9, 
	0xed, 0x45, 0xb1, 0x81, 0xfb, 0xdb, 0xde, 0x26, 0x21, 0x13, 0x12, 0xfd, 0x0d, 0x30, 0xd9, 0xd8, 0xf7, 0x0b, 0xf4, 0x02, 
	0xf2, 0xde, 0x3b, 0xfe, 0xec, 0x22, 0xde, 0x7f, 0x22, 0xd8, 0xa0, 0x00, 0xed, 0xf7, 0xe6, 0xeb, 0x05, 0x1d, 0xf0, 0xed, 
	0xd4, 0xf6, 0x16, 0x24, 0xf3, 0x0b, 0xe4, 0xbc, 0xe6, 0xec, 0xfd, 0xdc, 0xe9, 0x03, 0x1a, 0xfb, 0xef, 0x53, 0xf3, 0xe2, 
	0x05, 0x3c, 0xd1, 0xf0, 0x1f, 0x16, 0xd9, 0x1c, 0xc4, 0x2b, 0xf5, 0xff, 0xe9, 0x10, 0xec, 0xad, 0x02, 0x4f, 0x7a, 0x6d, 
	0x74, 0x33, 0x46, 0xe1, 0xd7, 0xc5, 0xfc, 0x58, 0xa5, 0x17, 0x4c, 0xfd, 0xe7, 0xfe, 0x72, 0x53, 0xd6, 0xf2, 0x25, 0x06, 
	0x00, 0xb1, 0x2c, 0x82, 0xec, 0xad, 0x06, 0xbb, 0x01, 0x2b, 0x32, 0x9f, 0x18, 0x2a, 0xa6, 0xf2, 0xe2, 0xec, 0x2b, 0x7f, 
	0x3c, 0xe0, 0x3d, 0xfa, 0xb5, 0xfd, 0x00, 0x20, 0xbf, 0x19, 0xf3, 0x45, 0xb3, 0xae, 0x5d, 0x3e, 0xfa, 0x6a, 0x1d, 0x31, 
	0x39, 0xe4, 0x46, 0xcc, 0xa5, 0xaf, 0x5b, 0x52, 0x6b, 0x40, 0x13, 0xfa, 0xb5, 0xd9, 0x5b, 0xe2, 0x13, 0xaf, 0xe8, 0x41, 
	0xe7, 0x54, 0x78, 0xdc, 0x0e, 0xb5, 0x6d, 0xcf, 0xf5, 0x0e, 0x71, 0x50, 0x55, 0xfe, 0x43, 0x91, 0xc0, 0x4a, 0x32, 0xb5, 
	0x0c, 0x66, 0x7d, 0x48, 0x7f, 0xc2, 0xae, 0xa9, 0xd1, 0x0f, 0xf2, 0x16, 0xfc, 0x17, 0xb9, 0x3e, 0x0a, 0xde, 0x9e, 0xc2, 
	0x2a, 0x09, 0x21, 0xb3, 0xae, 0x1e, 0xa7, 0xd9, 0x66, 0x15, 0xe2, 0xc8, 0xf7, 0x03, 0x7f, 0x15, 0xb4, 0x6d, 0x44, 0x57, 
	0x39, 0xf1, 0x05, 0xd3, 0xfa, 0xf2, 0x09, 0x28, 0xde, 0xec, 0xe8, 0x08, 0xeb, 0x41, 0x20, 0x07, 0xe2, 0xc7, 0x05, 0x1d, 
	0x13, 0xad, 0x1e, 0xee, 0xd9, 0xb3, 0xff, 0x52, 0xbc, 0xf8, 0x0f, 0x2a, 0xca, 0x3d, 0xfc, 0x40, 0x2b, 0xdc, 0xeb, 0x91, 
	0x2a, 0xc5, 0xfd, 0xf3, 0x2e, 0xef, 0x14, 0xcf, 0xe7, 0x17, 0x26, 0x17, 0x17, 0xfd, 0xe9, 0xe1, 0xf0, 0xc7, 0xda, 0xca, 
	0xd7, 0xc1, 0x24, 0xad, 0xd9, 0x2b, 0xd7, 0x01, 0xd4, 0xf5, 0xea, 0xf1, 0xdb, 0x3f, 0xe7, 0xf6, 0x47, 0xff, 0xf3, 0xe4, 
	0xbf, 0x08, 0x28, 0xe4, 0xf1, 0x27, 0xf4, 0xc8, 0x4c, 0xf5, 0xe1, 0xf2, 0xce, 0x30, 0xeb, 0x2c, 0x2d, 0xe4, 0x00, 0xd5, 
	0x81, 0xf4, 0x25, 0x1f, 0x1b, 0xe3, 0x3e, 0xd1, 0x17, 0x39, 0xcd, 0xf0, 0x0f, 0x0d, 0x43, 0x0c, 0xe7, 0xf2, 0x33, 0x37, 
	0x04, 0xcb, 0x03, 0x38, 0xf9, 0xda, 0x22, 0xe8, 0xd8, 0x3d, 0xe3, 0xc3, 0xc8, 0xd8, 0x03, 0x03, 0xfe, 0xe9, 0xf5, 0x1c, 
	0x20, 0xe7, 0x41, 0x42, 0xe8, 0xc4, 0xe2, 0x32, 0x43, 0x1b, 0xc0, 0xf3, 0xf4, 0xe1, 0x24, 0x26, 0x7f, 0xb1, 0x3a, 0xd8, 
	0x31, 0x02, 0x11, 0xed, 0x19, 0x48, 0x0b, 0xf1, 0x81, 0x0d, 0xaa, 0xa3, 0x0f, 0x00, 0xf5, 0xa3, 0x98, 0x41, 0x04, 0xa0, 
	0xf3, 0x4d, 0x05, 0x55, 0x32, 0x73, 0xe7, 0x17, 0x5d, 0x51, 0x25, 0x7b, 0xad, 0x45, 0x87, 0xdf, 0xb7, 0x9c, 0x59, 0xbe, 
	0x48, 0xfa, 0xf9, 0xa3, 0x65, 0x23, 0xf3, 0x69, 0x45, 0xe9, 0xe8, 0x8d, 0xbc, 0x93, 0x50, 0x18, 0xd5, 0x30, 0x53, 0xcd, 
	0xf4, 0xf4, 0x46, 0xcc, 0x27, 0x71, 0xb7, 0xd8, 0x0c, 0x5f, 0x31, 0x29, 0x3c, 0xda, 0xed, 0x1c, 0xc6, 0x32, 0x50, 0xc7, 
	0xfc, 0xb1, 0x12, 0xec, 0x41, 0xee, 0xc5, 0xca, 0xdd, 0x15, 0x56, 0xc8, 0x27, 0xfa, 0x40, 0xb0, 0x43, 0x25, 0x2f, 0x11, 
	0x03, 0xff, 0x07, 0xdf, 0xf3, 0x1c, 0x1e, 0x27, 0x07, 0xfd, 0x05, 0x29, 0x9e, 0xec, 0x42, 0xf2, 0xdd, 0x56, 0xd9, 0x25, 
	0xfa, 0xab, 0xdb, 0x7f, 0xec, 0xd6, 0xc6, 0xd0, 0xd4, 0x0b, 0xfd, 0xe5, 0x2d, 0xdd, 0x01, 0xe7, 0x37, 0xd8, 0xe3, 0xce, 
	0x22, 0x1b, 0x5e, 0xba, 0x2a, 0xc1, 0x2a, 0xe0, 0x3d, 0x43, 0x18, 0xd1, 0xd4, 0xdf, 0x32, 0xce, 0x4e, 0x7f, 0xe0, 0xc2, 
	0xf7, 0xff, 0x17, 0x09, 0xf2, 0x2c, 0x04, 0x0f, 0xf7, 0x96, 0xf7, 0x35, 0x29, 0xf0, 0xd6, 0xbe, 0x97, 0xff, 0x0b, 0x25, 
	0x21, 0xde, 0x57, 0x44, 0xff, 0x9b, 0x14, 0x48, 0xef, 0x1b, 0x43, 0x26, 0x1e, 0x21, 0xa6, 0xfb, 0xa1, 0x35, 0x1d, 0x9e, 
	0x30, 0x02, 0x06, 0xf0, 0xcc, 0x1c, 0x29, 0x07, 0xef, 0x18, 0xfd, 0x18, 0xfe, 0x10, 0x21, 0xf0, 0xc9, 0xf4, 0x1d, 0xd5, 
	0x35, 0x11, 0xdd, 0x7f, 0xe1, 0x0b, 0xf5, 0xc7, 0xb3, 0xfc, 0x1c, 0xdc, 0x2f, 0x57, 0xef, 0xf0, 0x15, 0xf3, 0xd7, 0xeb, 
	0xf1, 0x15, 0x19, 0xfa, 0xe4, 0x25, 0xd8, 0x09, 0xf8, 0x25, 0xb5, 0xae, 0x00, 0xcc, 0x1d, 0x11, 0xfc, 0x1e, 0xae, 0xf2, 
	0xda, 0x2c, 0xe0, 0xd8, 0x20, 0x1a, 0x31, 0xe7, 0xdc, 0x66, 0x06, 0x40, 0x2b, 0x22, 0x7f, 0x0b, 0xdd, 0x32, 0xff, 0xca, 
	0xd2, 0xf6, 0x06, 0xf4, 0x3a, 0x0a, 0x42, 0xdf, 0x0d, 0xb6, 0x2a, 0xf3, 0xc2, 0x19, 0xdf, 0x21, 0x01, 0x3e, 0x0c, 0x99, 
	0x03, 0x07, 0xe2, 0x33, 0xf8, 0x40, 0x44, 0x38, 0x0a, 0x06, 0xfc, 0x4c, 0x2d, 0x0e, 0xe2, 0x69, 0xd6, 0xc9, 0xcf, 0x22, 
	0x3c, 0x0b, 0x55, 0x00, 0xe6, 0x01, 0x23, 0x40, 0xa7, 0x0f, 0xfe, 0x51, 0x5a, 0x45, 0xf7, 0x81, 0xd9, 0x47, 0x6f, 0xd5, 
	0x19, 0x56, 0xcb, 0x90, 0xd6, 0x09, 0xfa, 0x20, 0x0e, 0x52, 0x25, 0x9b, 0x28, 0xe0, 0x23, 0x55, 0xd5, 0x42, 0xbb, 0xce, 
	0xcd, 0x30, 0x04, 0x01, 0xea, 0x0b, 0x00, 0x1d, 0xea, 0x2c, 0x28, 0x1e, 0xcb, 0xd7, 0xd6, 0x24, 0x66, 0xdc, 0x25, 0x41, 
	0x0b, 0x36, 0xad, 0x19, 0xad, 0xb1, 0x15, 0x91, 0xfe, 0x5e, 0xe9, 0xd6, 0xfd, 0xde, 0x01, 0x1f, 0x20, 0xe2, 0xe4, 0xa8, 
	0x2f, 0xf7, 0xb6, 0x74, 0xc6, 0x05, 0x17, 0x46, 0xd5, 0xf2, 0xeb, 0xc7, 0xe5, 0x9c, 0xfe, 0xc6, 0x0f, 0x0e, 0xdc, 0xff, 
	0x1a, 0x0a, 0xe6, 0xef, 0xff, 0x02, 0x03, 0x22, 0x3d, 0x26, 0xe8, 0xf0, 0x32, 0x31, 0xdf, 0xf3, 0x02, 0x21, 0x21, 0x10, 
	0x7f, 0xfb, 0xff, 0xe6, 0xdb, 0x07, 0xbb, 0xd1, 0xb5, 0xb8, 0xbc, 0xf6, 0x98, 0xf9, 0x60, 0xab, 0xf7, 0x1b, 0xff, 0x11, 
	0x11, 0x0b, 0xed, 0xed, 0x4f, 0x47, 0x24, 0x63, 0xdc, 0xfd, 0x18, 0x42, 0xdc, 0x0e, 0xe5, 0xd8, 0xd0, 0xa4, 0x10, 0xd2, 
	0xe9, 0x26, 0xf7, 0x37, 0x24, 0x1e, 0xfd, 0xc7, 0xfe, 0xfb, 0xdf, 0xec, 0xce, 0xea, 0x16, 0xf4, 0xd3, 0x02, 0x38, 0x34, 
	0x21, 0x13, 0xf5, 0xf7, 0x5a, 0xef, 0xf6, 0x1a, 0xc0, 0x27, 0x01, 0xd5, 0xec, 0xa0, 0xaa, 0xc1, 0xbd, 0x2b, 0x7f, 0xb0, 
	0xe2, 0x0f, 0xf9, 0x2e, 0xf1, 0x05, 0xf6, 0xdb, 0xf6, 0x15, 0xd1, 0xdf, 0x06, 0x19, 0x02, 0xf4, 0xf5, 0xff, 0x14, 0x2b, 
	0x13, 0xee, 0xe8, 0x7f, 0xf9, 0xe8, 0xf1, 0xe4, 0xf3, 0xfc, 0xef, 0xf0, 0x08, 0x06, 0xfa, 0x06, 0xdd, 0xf2, 0x0e, 0x1a, 
	0x08, 0xf8, 0xf6, 0x24, 0x09, 0x1f, 0xf5, 0xfe, 0xf8, 0x01, 0x0f, 0x05, 0xe6, 0xec, 0xe5, 0x0c, 0xe5, 0x19, 0xf4, 0x0b, 
	0x1f, 0x1f, 0x1d, 0x0f, 0x1a, 0xc2, 0x4c, 0x1a, 0xc0, 0x00, 0xd4, 0x2a, 0x2f, 0x4c, 0xfa, 0xfc, 0x07, 0x04, 0x09, 0xd3, 
	0x16, 0x46, 0xf6, 0xc7, 0xca, 0x81, 0xef, 0x50, 0xff, 0xf6, 0xd2, 0xe5, 0x00, 0xe7, 0x14, 0xd0, 0x21, 0x54, 0xf1, 0xf8, 
	0xfa, 0x05, 0xf0, 0xe9, 0xdb, 0xe8, 0xd6, 0xd3, 0x4f, 0x29, 0xf9, 0xf0, 0x5e, 0x26, 0xe0, 0xc4, 0x05, 0x01, 0xb5, 0xd0, 
	0xe1, 0xb5, 0xf9, 0x99, 0x99, 0xc4, 0x5c, 0xf6, 0x36, 0xf6, 0xbe, 0xe2, 0xf9, 0x2b, 0xee, 0xe1, 0xa5, 0x63, 0xa0, 0xca, 
	0xc2, 0x37, 0x3c, 0x36, 0xb4, 0xef, 0x6c, 0x12, 0x22, 0x47, 0x42, 0x7f, 0xda, 0xf8, 0x9f, 0x28, 0xc6, 0xcf, 0x40, 0xb8, 
	0xfd, 0x46, 0x56, 0xd0, 0x02, 0x1d, 0x31, 0x04, 0xea, 0xe7, 0xff, 0x3a, 0x4c, 0xf3, 0xd4, 0xf1, 0xb6, 0xc8, 0xec, 0xf9, 
	0xff, 0xd9, 0x35, 0xcf, 0x3a, 0x19, 0x43, 0xd3, 0xe4, 0x41, 0xda, 0x32, 0x81, 0x0d, 0x09, 0x25, 0x41, 0x28, 0xee, 0xe9, 
	0x28, 0xd1, 0x6c, 0x34, 0x10, 0xf2, 0x1d, 0xf8, 0x51, 0xf9, 0xcb, 0xcf, 0x28, 0xb4, 0xe2, 0x09, 0xd4, 0xa9, 0x2b, 0x10, 
	0xb2, 0x54, 0x7a, 0x31, 0x1a, 0xd1, 0x61, 0xb9, 0x3a, 0x1e, 0x68, 0x1b, 0x08, 0xcf, 0x00, 0x94, 0xe4, 0x4a, 0x53, 0xc5, 
	0xf9, 0x14, 0x47, 0x53, 0x03, 0xb3, 0x19, 0xb9, 0x3c, 0xea, 0x06, 0xc7, 0x55, 0xd7, 0x04, 0x30, 0x05, 0xd8, 0x4d, 0x17, 
	0xe0, 0x09, 0xda, 0xf7, 0x50, 0x03, 0xc1, 0x69, 0xd3, 0x0d, 0xf2, 0x3e, 0xec, 0xd0, 0xc2, 0x11, 0x28, 0xda, 0x1c, 0xc1, 
	0x22, 0x22, 0x95, 0x08, 0xd4, 0x1a, 0x0b, 0xf0, 0x30, 0x28, 0xa4, 0x20, 0x07, 0x17, 0xe4, 0xfd, 0x17, 0x1f, 0x02, 0xe8, 
	0xe2, 0xb9, 0x34, 0xca, 0x5f, 0x25, 0xc0, 0xd6, 0xd1, 0x3d, 0xab, 0xe9, 0xfb, 0x19, 0x84, 0x81, 0xa0, 0xe7, 0x01, 0xab, 
	0xa6, 0xe7, 0xbe, 0x4f, 0x44, 0x62, 0xb2, 0xc5, 0xf1, 0x45, 0x2f, 0x26, 0xd9, 0xc0, 0x54, 0x06, 0x68, 0x3e, 0x02, 0x36, 
	0xc7, 0xb4, 0xb7, 0xf3, 0x2f, 0xa1, 0x4a, 0x0b, 0xea, 0xbf, 0xf4, 0xfa, 0x5a, 0xa6, 0x4b, 0x01, 0xb2, 0xc7, 0xff, 0xe2, 
	0x77, 0x15, 0x29, 0x20, 0x04, 0x04, 0x53, 0xe0, 0xef, 0x03, 0x69, 0xde, 0x7a, 0x4c, 0x56, 0x09, 0x22, 0x5b, 0x7f, 0xb5, 
	0xf7, 0xb5, 0x21, 0x51, 0xe5, 0x17, 0x91, 0xe9, 0xf6, 0xf2, 0x4a, 0x93, 0x2e, 0x4e, 0x2e, 0xda, 0x5a, 0x42, 0x1d, 0x0d, 
	0x10, 0x10, 0xfc, 0xe1, 0xf3, 0xf4, 0xa0, 0xd1, 0xca, 0xeb, 0xee, 0x08, 0xef, 0xce, 0xe8, 0xf5, 0x30, 0x36, 0x0e, 0xbf, 
	0x1c, 0xb8, 0xcb, 0xbf, 0x81, 0x16, 0xc7, 0xfb, 0x3f, 0x16, 0xf5, 0x20, 0xe4, 0x3a, 0xfa, 0xcd, 0xc2, 0xdb, 0x2f, 0xfd, 
	0x38, 0xf0, 0xd0, 0x2a, 0xca, 0xb1, 0xde, 0xfa, 0xe0, 0x14, 0xb9, 0xe2, 0x04, 0xf8, 0xda, 0xe5, 0xe9, 0x4a, 0x06, 0xd6, 
	0xfe, 0xf3, 0x27, 0xf6, 0x0d, 0x32, 0x23, 0xd5, 0x37, 0x0e, 0xf7, 0x7f, 0xe8, 0xef, 0xbe, 0xc4, 0xeb, 0x07, 0x0a, 0xe8, 
	0xfa, 0x38, 0xf1, 0xfb, 0xfc, 0xe1, 0xdd, 0xe2, 0x19, 0xee, 0xe3, 0xfa, 0xfe, 0xde, 0xfd, 0x05, 0x0e, 0xec, 0xe7, 0xcb, 
	0xf5, 0x3f, 0x10, 0xcc, 0x0c, 0xff, 0xe6, 0x22, 0xfb, 0x2b, 0xeb, 0xfe, 0x08, 0xfd, 0xad, 0x2f, 0xb7, 0x2d, 0xeb, 0x81, 
	0x34, 0x11, 0xfc, 0xb7, 0x51, 0x24, 0xd8, 0xf3, 0x13, 0x13, 0x43, 0x25, 0x4b, 0x1e, 0x0d, 0xb9, 0x4e, 0x15, 0x27, 0x1e, 
	0x1b, 0xf8, 0xd3, 0x3a, 0xda, 0x8c, 0x55, 0x51, 0x00, 0x3d, 0xec, 0xef, 0xff, 0xc6, 0xbf, 0x10, 0xf9, 0xed, 0xf6, 0x2d, 
	0xda, 0xa5, 0x29, 0x77, 0xbf, 0xb8, 0x40, 0xe4, 0x3b, 0x10, 0xbf, 0x17, 0xb1, 0xf8, 0x14, 0xa2, 0x00, 0xd4, 0x5c, 0x43, 
	0xd2, 0x7f, 0x89, 0xb3, 0xd5, 0x08, 0xf3, 0xe5, 0xba, 0x0f, 0x03, 0x7c, 0xc2, 0x02, 0xd7, 0xc7, 0x15, 0xa6, 0xc6, 0xe0, 
	0x05, 0x58, 0xe9, 0x35, 0x19, 0xed, 0x6d, 0x50, 0x5b, 0xda, 0xc9, 0x15, 0x15, 0x08, 0xe2, 0xc9, 0x49, 0xdf, 0x5b, 0x5c, 
	0xd1, 0x24, 0xe4, 0xe4, 0x31, 0x07, 0x63, 0x4d, 0x51, 0xe0, 0x0f, 0xdc, 0x39, 0xca, 0xc2, 0xb7, 0xab, 0xc5, 0x58, 0xcc, 
	0x21, 0xbe, 0x79, 0xc6, 0x4d, 0x11, 0x30, 0xee, 0xa7, 0x59, 0xae, 0x58, 0x3e, 0x35, 0xdc, 0x4f, 0x1b, 0x0d, 0xe6, 0xb7, 
	0xa0, 0x81, 0x29, 0xc2, 0xd4, 0x0b, 0xcd, 0x5f, 0x36, 0x11, 0xd8, 0xd7, 0xf6, 0x31, 0xf2, 0x0c, 0x2d, 0xb6, 0xe6, 0xe3, 
	0x18, 0x41, 0x17, 0xec, 0xea, 0xb2, 0x21, 0xea, 0x79, 0x33, 0xf9, 0xda, 0xed, 0x56, 0xb6, 0xcb, 0xe5, 0xb7, 0x84, 0xf0, 
	0x0a, 0xe4, 0x0d, 0xa4, 0x19, 0xc1, 0xae, 0x0b, 0x17, 0x1a, 0x31, 0xca, 0xe6, 0x14, 0xb6, 0x03, 0x09, 0x1a, 0x1e, 0xec, 
	0x05, 0x22, 0x40, 0x0e, 0x39, 0x7f, 0xf8, 0x03, 0x6c, 0x26, 0xeb, 0xe2, 0xfa, 0xd0, 0xfb, 0xf3, 0xd1, 0xa4, 0x17, 0xf2, 
	0xce, 0xc7, 0xcd, 0xdc, 0xd1, 0x2f, 0x2e, 0x00, 0x09, 0xb0, 0x40, 0x4b, 0xfb, 0x0b, 0x3e, 0x08, 0xfe, 0x0a, 0x0f, 0xd2, 
	0x2f, 0x00, 0x0b, 0x4c, 0x07, 0x14, 0x16, 0x95, 0xe7, 0xf1, 0x64, 0x08, 0x1c, 0x27, 0x26, 0xf3, 0x07, 0xf3, 0xbf, 0x7f, 
	0xdd, 0xf9, 0x20, 0x25, 0x29, 0xd6, 0xe9, 0xf0, 0x30, 0x03, 0x18, 0xdf, 0xe0, 0xf2, 0xdf, 0x41, 0x2d, 0x02, 0x0a, 0x13, 
	0xe1, 0x2b, 0x04, 0x08, 0xc1, 0x08, 0xf4, 0xd8, 0x0c, 0xda, 0x3e, 0x17, 0xd0, 0xf3, 0x1a, 0x07, 0x34, 0xbb, 0x3c, 0x08, 
	0xef, 0xe4, 0xcb, 0x0e, 0x23, 0xe4, 0xd5, 0xc1, 0xde, 0x0c, 0x54, 0xa0, 0x0e, 0xcd, 0x27, 0xd9, 0x02, 0x0c, 0xc5, 0xd7, 
	0x3c, 0xcf, 0xeb, 0xe1, 0x00, 0xc1, 0x38, 0x50, 0x0d, 0xce, 0x19, 0xd9, 0x19, 0xed, 0x28, 0xf4, 0xb1, 0xe8, 0x56, 0xc8, 
	0x31, 0xdb, 0x6e, 0xf8, 0x32, 0xa1, 0x21, 0xf3, 0x3a, 0x40, 0x12, 0x00, 0x57, 0x1c, 0x20, 0x2f, 0x56, 0xf7, 0x26, 0x07, 
	0xf4, 0x28, 0x46, 0x05, 0x7f, 0x01, 0x0d, 0xdf, 0x2d, 0x4b, 0x5c, 0xdb, 0xd5, 0xe8, 0x3b, 0x64, 0x54, 0xc6, 0x85, 0x43, 
	0xce, 0xcf, 0xef, 0xb9, 0x70, 0x19, 0xb1, 0xe7, 0x54, 0x51, 0x12, 0x9a, 0xfb, 0xed, 0x5f, 0xaa, 0x41, 0xec, 0x81, 0x2c, 
	0xa1, 0xed, 0x9d, 0x15, 0xab, 0x01, 0xf1, 0xd2, 0xd5, 0x2f, 0x22, 0x1e, 0x19, 0x8f, 0x03, 0xe0, 0x81, 0xee, 0x33, 0xc1, 
	0x46, 0xe8, 0x10, 0x01, 0xe2, 0xe9, 0x97, 0x07, 0xd1, 0x39, 0xba, 0x32, 0xc3, 0x0e, 0xea, 0xfb, 0xba, 0x33, 0xb4, 0x1f, 
	0xea, 0xe6, 0x99, 0xe7, 0x12, 0x28, 0x0b, 0x8d, 0xf3, 0xe4, 0x63, 0xd1, 0x02, 0x58, 0xb0, 0x94, 0x4a, 0xed, 0x2d, 0x42, 
	0x3d, 0x23, 0x19, 0xac, 0x70, 0xdb, 0xc6, 0xd8, 0x1f, 0x29, 0x0c, 0x1b, 0xdf, 0xed, 0x3e, 0x12, 0xca, 0xfc, 0x08, 0xe1, 
	0xf5, 0x29, 0xab, 0xb7, 0xd3, 0x26, 0x40, 0x1d, 0x18, 0xb9, 0x24, 0x65, 0xa8, 0xdd, 0x27, 0x56, 0xe3, 0xda, 0xfe, 0x59, 
	0xa5, 0x15, 0x06, 0x81, 0xc2, 0xf4, 0x0d, 0x04, 0xe0, 0xfe, 0x50, 0x81, 0x62, 0x92, 0x6e, 0x26, 0x67, 0xe1, 0xbc, 0xc0, 
	0x4f, 0xd8, 0x12, 0xd1, 0x12, 0x5b, 0x5b, 0xe3, 0x0a, 0x3f, 0x3e, 0x1a, 0x02, 0x3c, 0x00, 0x1f, 0xe5, 0xef, 0xdb, 0xb3, 
	0xe0, 0xb2, 0xff, 0x1c, 0x9d, 0xbf, 0xbf, 0x1c, 0x16, 0x2a, 0x10, 0x1b, 0x16, 0xf2, 0xee, 0x51, 0xd2, 0x01, 0xb6, 0x19, 
	0xc2, 0x1f, 0xa8, 0x50, 0x09, 0x1d, 0x11, 0x9e, 0xae, 0x02, 0xd0, 0x24, 0xd2, 0xe4, 0x36, 0xe8, 0xeb, 0xdf, 0x4e, 0x17, 
	0x3f, 0xe8, 0x14, 0xf6, 0x20, 0xdc, 0x29, 0xc7, 0xfe, 0x60, 0x35, 0xe1, 0x7f, 0x42, 0x15, 0x37, 0xe7, 0x01, 0xc8, 0x1e, 
	0xdc, 0xd0, 0x57, 0x06, 0x2d, 0x30, 0xe6, 0x04, 0xf4, 0xdf, 0x30, 0xbf, 0x44, 0x01, 0xcd, 0x43, 0xe8, 0x09, 0x07, 0x74, 
	0x26, 0xb8, 0x03, 0x1b, 0xc9, 0x0a, 0xf3, 0xe3, 0xf1, 0x0a, 0x33, 0x93, 0x31, 0xc4, 0xd4, 0x41, 0x0f, 0xdc, 0x39, 0x97, 
	0xc9, 0x51, 0xc4, 0xa9, 0x40, 0xd7, 0x35, 0xc5, 0xab, 0x06, 0x1b, 0xb4, 0x5b, 0xc2, 0x9a, 0x7f, 0xe9, 0xbd, 0xd5, 0xf6, 
	0xb7, 0xe6, 0xd6, 0xfb, 0x25, 0x42, 0xee, 0xfe, 0x2e, 0x46, 0x9f, 0xd6, 0xfc, 0xac, 0xa8, 0x56, 0xf0, 0xc7, 0x21, 0x21, 
	0xc8, 0xee, 0xae, 0x9f, 0xfe, 0x5e, 0xef, 0x1d, 0xe2, 0x1b, 0xb4, 0x0a, 0xe2, 0x2c, 0xe1, 0x18, 0x22, 0x01, 0x23, 0xf2, 
	0xe2, 0x02, 0x55, 0xa0, 0x51, 0xd1, 0x20, 0xef, 0x37, 0x2d, 0xdc, 0xba, 0xe3, 0xf3, 0x3f, 0xd9, 0x01, 0x4e, 0x1b, 0xea, 
	0x12, 0x17, 0x25, 0xd7, 0x25, 0x30, 0xf4, 0x3d, 0xef, 0x81, 0xec, 0xe6, 0x3f, 0x26, 0xc7, 0xde, 0x09, 0x24, 0xe7, 0xd1, 
	0xfd, 0x12, 0x4b, 0x06, 0x0e, 0xbe, 0xec, 0x4d, 0x04, 0xd6, 0x3f, 0xdc, 0x00, 0x24, 0xbf, 0x31, 0xd5, 0xf6, 0x16, 0x89, 
	0x1b, 0xd5, 0x36, 0xe0, 0xd4, 0xfb, 0xde, 0xf9, 0x25, 0x40, 0xf7, 0x56, 0x06, 0xf7, 0x0f, 0xc5, 0x20, 0x18, 0x1e, 0x3a, 
	0xe4, 0xd3, 0x13, 0xc9, 0xc1, 0x41, 0x87, 0x55, 0xd2, 0x44, 0xe3, 0xeb, 0xee, 0x0a, 0x00, 0x0e, 0xf3, 0xf3, 0xee, 0x29, 
	0x27, 0x2f, 0x05, 0x11, 0xf9, 0xc7, 0x11, 0xea, 0x3b, 0xd1, 0xef, 0xf1, 0x09, 0xd4, 0xe9, 0xa9, 0x48, 0xd6, 0x94, 0x81, 
	0xe9, 0x56, 0x6d, 0xb1, 0xfc, 0x30, 0x1a, 0x0f, 0x03, 0x2d, 0xf7, 0xf4, 0xea, 0x44, 0x0d, 0x09, 0xdd, 0x1a, 0x1c, 0x04, 
	0xd2, 0xd7, 0x00, 0x02, 0x15, 0xd8, 0x0c, 0x7f, 0x1a, 0x0c, 0xfe, 0xf9, 0xe0, 0x12, 0x0d, 0x0c, 0xd6, 0xfe, 0x4a, 0xcd, 
	0x0c, 0xe7, 0xec, 0x16, 0x1a, 0xe5, 0x04, 0x13, 0x04, 0xc3, 0x2f, 0xe7, 0xe8, 0xcf, 0x35, 0x19, 0x4d, 0xbb, 0xc9, 0x2f, 
	0xf3, 0xed, 0xf0, 0xd3, 0x23, 0xdf, 0xd5, 0xdb, 0xec, 0xf2, 0xfd, 0x31, 0x05, 0x03, 0x2e, 0xc4, 0x1e, 0x35, 0x1b, 0xdf, 
	0x0c, 0x3d, 0xd3, 0xdd, 0xf7, 0xec, 0xf8, 0x0a, 0x41, 0xc9, 0x1a, 0xbb, 0xd7, 0x38, 0xd1, 0x37, 0xdf, 0x29, 0xd5, 0x33, 
	0xfc, 0xf4, 0x00, 0xef, 0xe4, 0x4c, 0x04, 0x0e, 0x81, 0x07, 0x39, 0x3b, 0xde, 0xe9, 0x36, 0xf1, 0x0b, 0xe8, 0x0f, 0x29, 
	0xd6, 0xf7, 0x08, 0xd8, 0x30, 0xe7, 0x29, 0xd2, 0xa8, 0x15, 0xec, 0x03, 0xe5, 0xfb, 0x67, 0x10, 0xe8, 0x16, 0x14, 0xdd, 
	0x1e, 0x04, 0xcc, 0x35, 0x1f, 0x04, 0xf8, 0xe5, 0xdd, 0x0c, 0xd9, 0xba, 0xe9, 0xb0, 0xf3, 0xce, 0xe7, 0x3c, 0xbd, 0x31, 
	0x02, 0x07, 0xfe, 0xda, 0x34, 0x18, 0xd3, 0x43, 0xd1, 0xcd, 0x30, 0x2b, 0xd4, 0xe1, 0x27, 0xb0, 0xe8, 0x11, 0xef, 0xda, 
	0x2a, 0x39, 0x00, 0xf9, 0xdd, 0xfb, 0xcf, 0xff, 0x32, 0xfa, 0xe3, 0x89, 0xc5, 0xf7, 0x7f, 0xc2, 0xd2, 0xe1, 0xa0, 0x47, 
	0xc4, 0x78, 0xd7, 0xfe, 0xfa, 0xa2, 0xf5, 0xe1, 0x23, 0xeb, 0x38, 0x0d, 0xec, 0xee, 0xe2, 0x00, 0xe8, 0x3a, 0x7f, 0xdc, 
	0x06, 0x2a, 0x69, 0xce, 0x3a, 0x12, 0xc4, 0xdd, 0x42, 0xa4, 0x22, 0xe9, 0xb1, 0xfb, 0xa1, 0xea, 0xd1, 0xbc, 0x93, 0x9b, 
	0x01, 0x43, 0xb8, 0x32, 0x52, 0xec, 0x78, 0x53, 0xde, 0xe7, 0xde, 0x3e, 0xd6, 0x01, 0x1e, 0xf2, 0x8b, 0xd3, 0xc6, 0x8c, 
	0x28, 0x10, 0x65, 0x18, 0x2c, 0xcc, 0x11, 0x0d, 0xc9, 0x53, 0x1d, 0x38, 0xf6, 0xf1, 0x2d, 0xbe, 0xdd, 0x37, 0x29, 0x27, 
	0xe2, 0xd4, 0xd7, 0x15, 0xbc, 0xe7, 0x9d, 0x29, 0x0b, 0xe3, 0xf2, 0x0b, 0xd2, 0x0c, 0xce, 0xdd, 0xe5, 0xe5, 0x24, 0xc5, 
	0x42, 0x3c, 0x47, 0x1c, 0xca, 0xf5, 0xbe, 0xe1, 0x72, 0x01, 0xd0, 0x1b, 0xd7, 0xe7, 0xac, 0x20, 0x0f, 0xa5, 0x9f, 0xc0, 
	0xb4, 0xa7, 0x7c, 0x81, 0xe5, 0xeb, 0xee, 0x08, 0xe4, 0xe8, 0xde, 0xd6, 0x0f, 0x22, 0x81, 0xda, 0xdf, 0xed, 0xfd, 0x01, 
	0x22, 0x40, 0x35, 0xa9, 0x37, 0xcf, 0x06, 0x77, 0x0f, 0x02, 0x09, 0x16, 0xcd, 0xe6, 0x14, 0xea, 0xe5, 0x2b, 0x04, 0xd8, 
	0x12, 0x0b, 0xdd, 0x44, 0x0c, 0x2a, 0xf6, 0xc0, 0x32, 0x2f, 0x02, 0x07, 0xfd, 0xbb, 0xd0, 0x12, 0x06, 0x15, 0xcc, 0xba, 
	0x38, 0x3c, 0xfd, 0x03, 0x23, 0x49, 0xdf, 0x3b, 0xf1, 0xda, 0xab, 0x56, 0xe1, 0xdf, 0xe8, 0xd2, 0xf6, 0x5c, 0xac, 0x0f, 
	0x2d, 0xf4, 0x0c, 0xfd, 0x0a, 0x01, 0x19, 0x2e, 0x3e, 0x0b, 0xd5, 0x7f, 0xd5, 0xd3, 0x8c, 0xdf, 0xd3, 0x08, 0x0d, 0xdf, 
	0xd6, 0x00, 0xea, 0xd0, 0xcc, 0xe2, 0xe8, 0x19, 0x26, 0x14, 0x32, 0xfc, 0x3d, 0x1f, 0x35, 0x0c, 0xd7, 0xc2, 0xf7, 0xde, 
	0xe1, 0xf7, 0x3e, 0x1e, 0x17, 0x2a, 0xbc, 0xac, 0x0e, 0x27, 0xc1, 0x0c, 0x0c, 0xdc, 0xd9, 0x3f, 0x02, 0x09, 0x3a, 0xc4, 
	0xbd, 0x44, 0xad, 0xc0, 0xee, 0x08, 0x1a, 0xb5, 0xb5, 0x22, 0x57, 0xa2, 0x59, 0xe2, 0xde, 0x7f, 0x18, 0xe1, 0xa9, 0xad, 
	0xdf, 0xec, 0xf2, 0xde, 0x1d, 0x40, 0x0a, 0xe7, 0xef, 0xfc, 0xe2, 0x10, 0x2a, 0xe5, 0x1a, 0x3c, 0x41, 0xd7, 0x22, 0x11, 
	0x04, 0xd9, 0xcf, 0xd5, 0x0e, 0xe7, 0xda, 0xd4, 0xc8, 0xd8, 0xc8, 0x48, 0x1c, 0x3a, 0xeb, 0x32, 0x3c, 0xae, 0xe5, 0x51, 
	0x2c, 0x09, 0x1d, 0x81, 0xda, 0xfe, 0x78, 0xc3, 0x07, 0x32, 0xf7, 0xcd, 0xca, 0xbe, 0x60, 0xf4, 0x28, 0x18, 0xb9, 0xbe, 
	0x4d, 0xd5, 0x31, 0xe6, 0x37, 0x1b, 0xcf, 0xf9, 0xfa, 0x2b, 0x57, 0x07, 0xcb, 0xa8, 0x1b, 0xdc, 0x89, 0xf9, 0xb7, 0x3d, 
	0xfa, 0xc0, 0x26, 0x5a, 0x04, 0x0f, 0xd9, 0x64, 0xc1, 0x44, 0x37, 0xe7, 0xc9, 0xcd, 0xef, 0xe1, 0xe6, 0xc8, 0x99, 0xd6, 
	0xde, 0x10, 0xab, 0xcb, 0xf0, 0xf5, 0x21, 0xad, 0xdb, 0xdf, 0x10, 0xd1, 0x22, 0x3a, 0xef, 0xc4, 0x37, 0xdd, 0x52, 0x39, 
	0x43, 0x02, 0x4f, 0xce, 0x3b, 0x35, 0x4c, 0x32, 0x01, 0xea, 0x13, 0xe7, 0xc7, 0xb0, 0x39, 0x14, 0xdc, 0xe6, 0xcd, 0x18, 
	0x12, 0x03, 0x1f, 0x20, 0x4e, 0xee, 0xe0, 0x2e, 0xdc, 0x29, 0x08, 0x68, 0xe6, 0xe7, 0xbf, 0x11, 0xc3, 0xfb, 0x13, 0x0e, 
	0xe9, 0xe6, 0x2a, 0x81, 0xf2, 0xce, 0x33, 0xe0, 0x1f, 0x1b, 0xd5, 0x21, 0x5f, 0x57, 0xef, 0x4b, 0xc8, 0x3d, 0x20, 0x0b, 
	0xe6, 0x23, 0x0c, 0x2a, 0x1d, 0x8d, 0xf2, 0x10, 0xb5, 0xdd, 0x85, 0x22, 0x32, 0x3a, 0xf9, 0xd1, 0x38, 0x38, 0xf0, 0xe3, 
	0xa5, 0xac, 0x25, 0x1a, 0xe5, 0x29, 0xe2, 0xda, 0x1a, 0x30, 0x29, 0x3a, 0x7f, 0xd7, 0xde, 0x1e, 0xc2, 0x35, 0x1e, 0xef, 
	0x31, 0xc2, 0xb5, 0xc6, 0xbc, 0x50, 0x5a, 0xb3, 0xce, 0x72, 0xff, 0xff, 0x00, 0x00, 0x00, 0x09, 0x10, 0x00, 0x00, 0x00, 
	0x14, 0x00, 0x00, 0x00, 0x1c, 0x00, 0x00, 0x00, 0x34, 0x00, 0x00, 0x00, 0x04, 0x00, 0x00, 0x00, 0x40, 0x00, 0x00, 0x00, 
	0x01, 0x00, 0x00, 0x00, 0x01, 0x00, 0x00, 0x00, 0x40, 0x00, 0x00, 0x00, 0x15, 0x00, 0x00, 0x00, 0x6d, 0x6f, 0x64, 0x65, 
	0x6c, 0x2f, 0x63, 0x6f, 0x6e, 0x76, 0x32, 0x64, 0x5f, 0x34, 0x2f, 0x43, 0x6f, 0x6e, 0x76, 0x32, 0x44, 0x00, 0x00, 0x00, 
	0xc4, 0x76, 0xff, 0xff, 0x08, 0x00, 0x00, 0x00, 0x08, 0x01, 0x00, 0x00, 0x40, 0x00, 0x00, 0x00, 0x83, 0x71, 0xb9, 0x3b, 
	0x8b, 0x0c, 0x7c, 0x3b, 0x49, 0x57, 0x8e, 0x3b, 0x02, 0x96, 0x87, 0x3b, 0xb1, 0x3b, 0xac, 0x3b, 0x60, 0x9c, 0x9c, 0x3b, 
	0x3a, 0x7f, 0xb4, 0x3b, 0xb2, 0xea, 0xf9, 0x3b, 0x0c, 0xca, 0xdb, 0x3b, 0x50, 0x16, 0xed, 0x3b, 0x8f, 0xf6, 0xc9, 0x3b, 
	0xa4, 0xb8, 0x80, 0x3b, 0x6d, 0xcd, 0xa3, 0x3b, 0xc1, 0x9c, 0x98, 0x3b, 0x03, 0xd4, 0x89, 0x3b, 0x89, 0xc9, 0x5d, 0x3b, 
	0xeb, 0x5e, 0x5a, 0x3b, 0xc7, 0x75, 0x56, 0x3b, 0x9d, 0x3c, 0xe1, 0x3b, 0xd4, 0xfa, 0xb8, 0x3b, 0xa8, 0x15, 0x23, 0x3b, 
	0xdb, 0xa2, 0x6e, 0x3b, 0x36, 0xf8, 0x00, 0x3c, 0x48, 0x62, 0x9b, 0x3b, 0xe2, 0xd3, 0x8a, 0x3b, 0x3c, 0x89, 0x8f, 0x3b, 
	0x21, 0x47, 0x8e, 0x3b, 0xe3, 0x66, 0xcf, 0x3b, 0xe6, 0x65, 0xc7, 0x3b, 0xfc, 0x47, 0x85, 0x3b, 0xf6, 0x11, 0xa9, 0x3b, 
	0x0a, 0x7f, 0x94, 0x3b, 0x59, 0x80, 0x05, 0x3c, 0xfa, 0x29, 0x7f, 0x3b, 0x88, 0xcb, 0x99, 0x3b, 0x0c, 0x1f, 0x59, 0x3b, 
	0x65, 0xae, 0x9d, 0x3b, 0x4c, 0x7d, 0x46, 0x3b, 0xde, 0xa3, 0x29, 0x3c, 0x51, 0x10, 0xf4, 0x3b, 0x72, 0x89, 0x73, 0x3b, 
	0x2c, 0x31, 0xa9, 0x3b, 0x82, 0xbb, 0x5c, 0x3b, 0xed, 0xff, 0x93, 0x3b, 0x32, 0x67, 0x9c, 0x3b, 0x38, 0xcf, 0x75, 0x3b, 
	0x4f, 0x4d, 0xe8, 0x3b, 0xce, 0x8e, 0x88, 0x3b, 0xb8, 0xbe, 0x7c, 0x3b, 0x47, 0xc7, 0x90, 0x3b, 0xbe, 0xe4, 0xb6, 0x3b, 
	0xe5, 0x04, 0xa9, 0x3b, 0xc1, 0x61, 0xa0, 0x3b, 0x83, 0xb8, 0xe7, 0x3b, 0x51, 0xea, 0x10, 0x3c, 0x9e, 0x75, 0x89, 0x3b, 
	0x2a, 0x73, 0x68, 0x3b, 0xb5, 0xb6, 0x74, 0x3b, 0xd7, 0x82, 0xc4, 0x3b, 0x51, 0xd8, 0xab, 0x3b, 0xfc, 0xd8, 0xc0, 0x3b, 
	0xf8, 0x99, 0x95, 0x3b, 0x43, 0xf4, 0x8f, 0x3b, 0xd3, 0x47, 0x6b, 0x3b, 0x40, 0x00, 0x00, 0x00, 0x00, 0x00, 0x00, 0x00, 
	0x00, 0x00, 0x00, 0x00, 0x00, 0x00, 0x00, 0x00, 0x00, 0x00, 0x00, 0x00, 0x00, 0x00, 0x00, 0x00, 0x00, 0x00, 0x00, 0x00, 
	0x00, 0x00, 0x00, 0x00, 0x00, 0x00, 0x00, 0x00, 0x00, 0x00, 0x00, 0x00, 0x00, 0x00, 0x00, 0x00, 0x00, 0x00, 0x00, 0x00, 
	0x00, 0x00, 0x00, 0x00, 0x00, 0x00, 0x00, 0x00, 0x00, 0x00, 0x00, 0x00, 0x00, 0x00, 0x00, 0x00, 0x00, 0x00, 0x00, 0x00, 
	0x00, 0x00, 0x00, 0x00, 0x00, 0x00, 0x00, 0x00, 0x00, 0x00, 0x00, 0x00, 0x00, 0x00, 0x00, 0x00, 0x00, 0x00, 0x00, 0x00, 
	0x00, 0x00, 0x00, 0x00, 0x00, 0x00, 0x00, 0x00, 0x00, 0x00, 0x00, 0x00, 0x00, 0x00, 0x00, 0x00, 0x00, 0x00, 0x00, 0x00, 
	0x00, 0x00, 0x00, 0x00, 0x00, 0x00, 0x00, 0x00, 0x00, 0x00, 0x00, 0x00, 0x00, 0x00, 0x00, 0x00, 0x00, 0x00, 0x00, 0x00, 
	0x00, 0x00, 0x00, 0x00, 0x00, 0x00, 0x00, 0x00, 0x00, 0x00, 0x00, 0x00, 0x00, 0x00, 0x00, 0x00, 0x00, 0x00, 0x00, 0x00, 
	0x00, 0x00, 0x00, 0x00, 0x00, 0x00, 0x00, 0x00, 0x00, 0x00, 0x00, 0x00, 0x00, 0x00, 0x00, 0x00, 0x00, 0x00, 0x00, 0x00, 
	0x00, 0x00, 0x00, 0x00, 0x00, 0x00, 0x00, 0x00, 0x00, 0x00, 0x00, 0x00, 0x00, 0x00, 0x00, 0x00, 0x00, 0x00, 0x00, 0x00, 
	0x00, 0x00, 0x00, 0x00, 0x00, 0x00, 0x00, 0x00, 0x00, 0x00, 0x00, 0x00, 0x00, 0x00, 0x00, 0x00, 0x00, 0x00, 0x00, 0x00, 
	0x00, 0x00, 0x00, 0x00, 0x00, 0x00, 0x00, 0x00, 0x00, 0x00, 0x00, 0x00, 0x00, 0x00, 0x00, 0x00, 0x00, 0x00, 0x00, 0x00, 
	0x00, 0x00, 0x00, 0x00, 0x00, 0x00, 0x00, 0x00, 0x00, 0x00, 0x00, 0x00, 0x00, 0x00, 0x00, 0x00, 0x00, 0x00, 0x00, 0x00, 
	0x00, 0x00, 0x00, 0x00, 0x00, 0x00, 0x00, 0x00, 0x00, 0x00, 0x00, 0x00, 0x00, 0x00, 0x00, 0x00, 0x00, 0x00, 0x00, 0x00, 
	0x00, 0x00, 0x00, 0x00, 0x00, 0x00, 0x00, 0x00, 0x00, 0x00, 0x00, 0x00, 0x00, 0x00, 0x00, 0x00, 0x00, 0x00, 0x00, 0x00, 
	0x00, 0x00, 0x00, 0x00, 0x00, 0x00, 0x00, 0x00, 0x00, 0x00, 0x00, 0x00, 0x00, 0x00, 0x00, 0x00, 0x00, 0x00, 0x00, 0x00, 
	0x00, 0x00, 0x00, 0x00, 0x00, 0x00, 0x00, 0x00, 0x00, 0x00, 0x00, 0x00, 0x00, 0x00, 0x00, 0x00, 0x00, 0x00, 0x00, 0x00, 
	0x00, 0x00, 0x00, 0x00, 0x00, 0x00, 0x00, 0x00, 0x00, 0x00, 0x00, 0x00, 0x00, 0x00, 0x00, 0x00, 0x00, 0x00, 0x00, 0x00, 
	0x00, 0x00, 0x00, 0x00, 0x00, 0x00, 0x00, 0x00, 0x00, 0x00, 0x00, 0x00, 0x00, 0x00, 0x00, 0x00, 0x00, 0x00, 0x00, 0x00, 
	0x00, 0x00, 0x00, 0x00, 0x00, 0x00, 0x00, 0x00, 0x00, 0x00, 0x00, 0x00, 0x00, 0x00, 0x00, 0x00, 0x00, 0x00, 0x00, 0x00, 
	0x00, 0x00, 0x00, 0x00, 0x00, 0x00, 0x00, 0x00, 0x00, 0x00, 0x00, 0x00, 0x00, 0x00, 0x00, 0x00, 0x00, 0x00, 0x00, 0x00, 
	0x00, 0x00, 0x00, 0x00, 0x00, 0x00, 0x00, 0x00, 0x00, 0x00, 0x00, 0x00, 0x00, 0x00, 0x00, 0x00, 0x00, 0x00, 0x00, 0x00, 
	0x00, 0x00, 0x00, 0x00, 0x00, 0x00, 0x00, 0x00, 0x00, 0x00, 0x00, 0x00, 0x00, 0x00, 0x00, 0x00, 0x00, 0x00, 0x00, 0x00, 
	0x00, 0x00, 0x00, 0x00, 0x00, 0x00, 0x00, 0x00, 0x00, 0x00, 0x00, 0x00, 0x00, 0x00, 0x00, 0x00, 0x00, 0x00, 0x00, 0x00, 
	0x00, 0x00, 0x00, 0x00, 0x00, 0x00, 0x00, 0x00, 0x00, 0x00, 0x00, 0x00, 0x00, 0x00, 0x00, 0x00, 0x00, 0x00, 0x00, 0x00, 
	0x00, 0x00, 0x00, 0x00, 0x00, 0x00, 0x00, 0x00, 0x00, 0x00, 0x00, 0x00, 0x00, 0x00, 0x00, 0x00, 0x00, 0x00, 0x00, 0x00, 
	0x00, 0x00, 0x00, 0x00, 0x00, 0x00, 0x00, 0x00, 0x4e, 0x76, 0xff, 0xff, 0x04, 0x00, 0x00, 0x00, 0x00, 0x01, 0x00, 0x00, 
	0xd6, 0xf8, 0xff, 0xff, 0xc8, 0xf9, 0xff, 0xff, 0xfb, 0x0a, 0x00, 0x00, 0xa7, 0xf7, 0xff, 0xff, 0xea, 0xf7, 0xff, 0xff, 
	0xcf, 0xf7, 0xff, 0xff, 0x14, 0x03, 0x00, 0x00, 0x8f, 0x08, 0x00, 0x00, 0xa3, 0x05, 0x00, 0x00, 0xbf, 0x0b, 0x00, 0x00, 
	0xc5, 0x0c, 0x00, 0x00, 0xa7, 0x0a, 0x00, 0x00, 0x58, 0xf6, 0xff, 0xff, 0xd7, 0xff, 0xff, 0xff, 0x8c, 0xfd, 0xff, 0xff, 
	0xec, 0x09, 0x00, 0x00, 0x6f, 0xfa, 0xff, 0xff, 0x65, 0x02, 0x00, 0x00, 0x78, 0xf8, 0xff, 0xff, 0x78, 0x02, 0x00, 0x00, 
	0xc7, 0x05, 0x00, 0x00, 0x8e, 0x0a, 0x00, 0x00, 0x97, 0xf6, 0xff, 0xff, 0xe8, 0xfd, 0xff, 0xff, 0xec, 0xf6, 0xff, 0xff, 
	0xa4, 0x00, 0x00, 0x00, 0x4f, 0x0c, 0x00, 0x00, 0x45, 0xf9, 0xff, 0xff, 0x34, 0xf9, 0xff, 0xff, 0xf9, 0x01, 0x00, 0x00, 
	0x02, 0xf6, 0xff, 0xff, 0x8d, 0xfc, 0xff, 0xff, 0xd5, 0xf9, 0xff, 0xff, 0x9a, 0x0c, 0x00, 0x00, 0x3c, 0xff, 0xff, 0xff, 
	0x96, 0xff, 0xff, 0xff, 0xf6, 0xff, 0xff, 0xff, 0x32, 0x03, 0x00, 0x00, 0x22, 0xf6, 0xff, 0xff, 0xa7, 0x01, 0x00, 0x00, 
	0x82, 0x0c, 0x00, 0x00, 0x93, 0x00, 0x00, 0x00, 0x3b, 0x05, 0x00, 0x00, 0x77, 0x02, 0x00, 0x00, 0xa3, 0x01, 0x00, 0x00, 
	0x0c, 0x04, 0x00, 0x00, 0x57, 0x01, 0x00, 0x00, 0x20, 0xfa, 0xff, 0xff, 0x5a, 0xf7, 0xff, 0xff, 0x05, 0x02, 0x00, 0x00, 
	0xfe, 0x06, 0x00, 0x00, 0xdb, 0x07, 0x00, 0x00, 0x7d, 0xf6, 0xff, 0xff, 0x0c, 0x02, 0x00, 0x00, 0x70, 0x00, 0x00, 0x00, 
	0xc2, 0x01, 0x00, 0x00, 0x30, 0x02, 0x00, 0x00, 0x9c, 0x01, 0x00, 0x00, 0x61, 0x0b, 0x00, 0x00, 0x65, 0x0d, 0x00, 0x00, 
	0x40, 0x09, 0x00, 0x00, 0x84, 0x00, 0x00, 0x00, 0x5f, 0x0c, 0x00, 0x00, 0xca, 0x0e, 0x00, 0x00, 0x36, 0x77, 0xff, 0xff, 
	0x00, 0x00, 0x00, 0x02, 0x10, 0x00, 0x00, 0x00, 0x13, 0x00, 0x00, 0x00, 0x10, 0x00, 0x00, 0x00, 0xe4, 0x00, 0x00, 0x00, 
	0x01, 0x00, 0x00, 0x00, 0x40, 0x00, 0x00, 0x00, 0xd2, 0x00, 0x00, 0x00, 0x6d, 0x6f, 0x64, 0x65, 0x6c, 0x2f, 0x72, 0x65, 
	0x5f, 0x6c, 0x75, 0x5f, 0x37, 0x2f, 0x52, 0x65, 0x6c, 0x75, 0x3b, 0x6d, 0x6f, 0x64, 0x65, 0x6c, 0x2f, 0x62, 0x61, 0x74, 
	0x63, 0x68, 0x5f, 0x6e, 0x6f, 0x72, 0x6d, 0x61, 0x6c, 0x69, 0x7a, 0x61, 0x74, 0x69, 0x6f, 0x6e, 0x5f, 0x37, 0x2f, 0x46, 
	0x75, 0x73, 0x65, 0x64, 0x42, 0x61, 0x74, 0x63, 0x68, 0x4e, 0x6f, 0x72, 0x6d, 0x56, 0x33, 0x3b, 0x6d, 0x6f, 0x64, 0x65, 
	0x6c, 0x2f, 0x64, 0x65, 0x70, 0x74, 0x68, 0x77, 0x69, 0x73, 0x65, 0x5f, 0x63, 0x6f, 0x6e, 0x76, 0x32, 0x64, 0x5f, 0x33, 
	0x2f, 0x64, 0x65, 0x70, 0x74, 0x68, 0x77, 0x69, 0x73, 0x65, 0x3b, 0x6d, 0x6f, 0x64, 0x65, 0x6c, 0x2f, 0x64, 0x65, 0x70, 
	0x74, 0x68, 0x77, 0x69, 0x73, 0x65, 0x5f, 0x63, 0x6f, 0x6e, 0x76, 0x32, 0x64, 0x5f, 0x33, 0x2f, 0x42, 0x69, 0x61, 0x73, 
	0x41, 0x64, 0x64, 0x3b, 0x6d, 0x6f, 0x64, 0x65, 0x6c, 0x2f, 0x63, 0x6f, 0x6e, 0x76, 0x32, 0x64, 0x5f, 0x34, 0x2f, 0x43, 
	0x6f, 0x6e, 0x76, 0x32, 0x44, 0x3b, 0x6d, 0x6f, 0x64, 0x65, 0x6c, 0x2f, 0x64, 0x65, 0x70, 0x74, 0x68, 0x77, 0x69, 0x73, 
	0x65, 0x5f, 0x63, 0x6f, 0x6e, 0x76, 0x32, 0x64, 0x5f, 0x33, 0x2f, 0x42, 0x69, 0x61, 0x73, 0x41, 0x64, 0x64, 0x2f, 0x52, 
	0x65, 0x61, 0x64, 0x56, 0x61, 0x72, 0x69, 0x61, 0x62, 0x6c, 0x65, 0x4f, 0x70, 0x2f, 0x72, 0x65, 0x73, 0x6f, 0x75, 0x72, 
	0x63, 0x65, 0x00, 0x00, 0xdc, 0x7b, 0xff, 0xff, 0x08, 0x00, 0x00, 0x00, 0x08, 0x01, 0x00, 0x00, 0x40, 0x00, 0x00, 0x00, 
	0xed, 0x2e, 0x59, 0x39, 0x61, 0x40, 0x84, 0x39, 0x58, 0x7a, 0xe1, 0x39, 0x6a, 0xb5, 0x7f, 0x39, 0x9a, 0x17, 0x67, 0x39, 
	0x77, 0x36, 0x05, 0x3a, 0x0b, 0xcf, 0xc7, 0x39, 0x7a, 0xf5, 0xec, 0x39, 0x81, 0xa1, 0xa1, 0x39, 0x55, 0x9d, 0xbb, 0x39, 
	0x73, 0x05, 0x99, 0x39, 0xbf, 0x72, 0xc9, 0x39, 0xed, 0x3f, 0xb8, 0x39, 0x81, 0x0f, 0x65, 0x3a, 0xeb, 0x2b, 0x31, 0x3a, 
	0xd4, 0x0e, 0xae, 0x39, 0xef, 0x57, 0xb1, 0x39, 0xc0, 0x6b, 0xaf, 0x39, 0x48, 0x93, 0x0a, 0x3a, 0x37, 0x35, 0xf6, 0x39, 
	0x1a, 0x4c, 0xc9, 0x39, 0x68, 0x92, 0xd9, 0x39, 0x48, 0xa9, 0x94, 0x39, 0xb7, 0x73, 0xb7, 0x3a, 0x68, 0x63, 0xad, 0x39, 
	0xd9, 0x00, 0xcb, 0x39, 0xf5, 0xa7, 0x8d, 0x39, 0xc0, 0xd6, 0xe3, 0x39, 0x84, 0xa8, 0xe0, 0x39, 0xb5, 0x05, 0x8f, 0x39, 
	0xd0, 0x92, 0xc5, 0x39, 0x76, 0xb9, 0x8d, 0x3a, 0x56, 0x86, 0xee, 0x39, 0xde, 0x8b, 0xd3, 0x39, 0xa8, 0x08, 0x0e, 0x3a, 
	0xab, 0x08, 0x48, 0x3a, 0x45, 0x6f, 0x07, 0x3a, 0x3d, 0xa7, 0xb8, 0x39, 0x54, 0x08, 0xce, 0x39, 0xa8, 0x45, 0xfc, 0x39, 
	0x4c, 0x60, 0xaf, 0x39, 0x23, 0xec, 0x1a, 0x3a, 0xf7, 0xbb, 0x84, 0x39, 0xf7, 0xe3, 0xbe, 0x39, 0x1b, 0x07, 0xcf, 0x39, 
	0x01, 0x70, 0x67, 0x39, 0x00, 0x3d, 0xbe, 0x39, 0x07, 0xfa, 0xd0, 0x39, 0xa3, 0x85, 0xfc, 0x39, 0xf7, 0xf0, 0xba, 0x39, 
	0x0b, 0x4b, 0xcf, 0x39, 0x39, 0x11, 0x2e, 0x3a, 0xb0, 0x56, 0xdb, 0x39, 0x0f, 0x7c, 0x09, 0x3a, 0x28, 0x81, 0xde, 0x39, 
	0xa6, 0x51, 0xa6, 0x39, 0xba, 0x10, 0x8b, 0x39, 0xab, 0x4d, 0x39, 0x3a, 0xa2, 0x9a, 0xab, 0x39, 0x77, 0x1b, 0x9b, 0x39, 
	0xda, 0x0a, 0xcd, 0x39, 0x72, 0x86, 0xca, 0x39, 0x11, 0x48, 0xe9, 0x39, 0xf1, 0x01, 0xae, 0x39, 0x40, 0x00, 0x00, 0x00, 
	0x00, 0x00, 0x00, 0x00, 0x00, 0x00, 0x00, 0x00, 0x00, 0x00, 0x00, 0x00, 0x00, 0x00, 0x00, 0x00, 0x00, 0x00, 0x00, 0x00, 
	0x00, 0x00, 0x00, 0x00, 0x00, 0x00, 0x00, 0x00, 0x00, 0x00, 0x00, 0x00, 0x00, 0x00, 0x00, 0x00, 0x00, 0x00, 0x00, 0x00, 
	0x00, 0x00, 0x00, 0x00, 0x00, 0x00, 0x00, 0x00, 0x00, 0x00, 0x00, 0x00, 0x00, 0x00, 0x00, 0x00, 0x00, 0x00, 0x00, 0x00, 
	0x00, 0x00, 0x00, 0x00, 0x00, 0x00, 0x00, 0x00, 0x00, 0x00, 0x00, 0x00, 0x00, 0x00, 0x00, 0x00, 0x00, 0x00, 0x00, 0x00, 
	0x00, 0x00, 0x00, 0x00, 0x00, 0x00, 0x00, 0x00, 0x00, 0x00, 0x00, 0x00, 0x00, 0x00, 0x00, 0x00, 0x00, 0x00, 0x00, 0x00, 
	0x00, 0x00, 0x00, 0x00, 0x00, 0x00, 0x00, 0x00, 0x00, 0x00, 0x00, 0x00, 0x00, 0x00, 0x00, 0x00, 0x00, 0x00, 0x00, 0x00, 
	0x00, 0x00, 0x00, 0x00, 0x00, 0x00, 0x00, 0x00, 0x00, 0x00, 0x00, 0x00, 0x00, 0x00, 0x00, 0x00, 0x00, 0x00, 0x00, 0x00, 
	0x00, 0x00, 0x00, 0x00, 0x00, 0x00, 0x00, 0x00, 0x00, 0x00, 0x00, 0x00, 0x00, 0x00, 0x00, 0x00, 0x00, 0x00, 0x00, 0x00, 
	0x00, 0x00, 0x00, 0x00, 0x00, 0x00, 0x00, 0x00, 0x00, 0x00, 0x00, 0x00, 0x00, 0x00, 0x00, 0x00, 0x00, 0x00, 0x00, 0x00, 
	0x00, 0x00, 0x00, 0x00, 0x00, 0x00, 0x00, 0x00, 0x00, 0x00, 0x00, 0x00, 0x00, 0x00, 0x00, 0x00, 0x00, 0x00, 0x00, 0x00, 
	0x00, 0x00, 0x00, 0x00, 0x00, 0x00, 0x00, 0x00, 0x00, 0x00, 0x00, 0x00, 0x00, 0x00, 0x00, 0x00, 0x00, 0x00, 0x00, 0x00, 
	0x00, 0x00, 0x00, 0x00, 0x00, 0x00, 0x00, 0x00, 0x00, 0x00, 0x00, 0x00, 0x00, 0x00, 0x00, 0x00, 0x00, 0x00, 0x00, 0x00, 
	0x00, 0x00, 0x00, 0x00, 0x00, 0x00, 0x00, 0x00, 0x00, 0x00, 0x00, 0x00, 0x00, 0x00, 0x00, 0x00, 0x00, 0x00, 0x00, 0x00, 
	0x00, 0x00, 0x00, 0x00, 0x00, 0x00, 0x00, 0x00, 0x00, 0x00, 0x00, 0x00, 0x00, 0x00, 0x00, 0x00, 0x00, 0x00, 0x00, 0x00, 
	0x00, 0x00, 0x00, 0x00, 0x00, 0x00, 0x00, 0x00, 0x00, 0x00, 0x00, 0x00, 0x00, 0x00, 0x00, 0x00, 0x00, 0x00, 0x00, 0x00, 
	0x00, 0x00, 0x00, 0x00, 0x00, 0x00, 0x00, 0x00, 0x00, 0x00, 0x00, 0x00, 0x00, 0x00, 0x00, 0x00, 0x00, 0x00, 0x00, 0x00, 
	0x00, 0x00, 0x00, 0x00, 0x00, 0x00, 0x00, 0x00, 0x00, 0x00, 0x00, 0x00, 0x00, 0x00, 0x00, 0x00, 0x00, 0x00, 0x00, 0x00, 
	0x00, 0x00, 0x00, 0x00, 0x00, 0x00, 0x00, 0x00, 0x00, 0x00, 0x00, 0x00, 0x00, 0x00, 0x00, 0x00, 0x00, 0x00, 0x00, 0x00, 
	0x00, 0x00, 0x00, 0x00, 0x00, 0x00, 0x00, 0x00, 0x00, 0x00, 0x00, 0x00, 0x00, 0x00, 0x00, 0x00, 0x00, 0x00, 0x00, 0x00, 
	0x00, 0x00, 0x00, 0x00, 0x00, 0x00, 0x00, 0x00, 0x00, 0x00, 0x00, 0x00, 0x00, 0x00, 0x00, 0x00, 0x00, 0x00, 0x00, 0x00, 
	0x00, 0x00, 0x00, 0x00, 0x00, 0x00, 0x00, 0x00, 0x00, 0x00, 0x00, 0x00, 0x00, 0x00, 0x00, 0x00, 0x00, 0x00, 0x00, 0x00, 
	0x00, 0x00, 0x00, 0x00, 0x00, 0x00, 0x00, 0x00, 0x00, 0x00, 0x00, 0x00, 0x00, 0x00, 0x00, 0x00, 0x00, 0x00, 0x00, 0x00, 
	0x00, 0x00, 0x00, 0x00, 0x00, 0x00, 0x00, 0x00, 0x00, 0x00, 0x00, 0x00, 0x00, 0x00, 0x00, 0x00, 0x00, 0x00, 0x00, 0x00, 
	0x00, 0x00, 0x00, 0x00, 0x00, 0x00, 0x00, 0x00, 0x00, 0x00, 0x00, 0x00, 0x00, 0x00, 0x00, 0x00, 0x00, 0x00, 0x00, 0x00, 
	0x00, 0x00, 0x00, 0x00, 0x00, 0x00, 0x00, 0x00, 0x00, 0x00, 0x00, 0x00, 0x00, 0x00, 0x00, 0x00, 0x00, 0x00, 0x00, 0x00, 
	0x00, 0x00, 0x00, 0x00, 0x00, 0x00, 0x00, 0x00, 0x00, 0x00, 0x00, 0x00, 0x00, 0x00, 0x00, 0x00, 0x6a, 0x7b, 0xff, 0xff, 
	0x04, 0x00, 0x00, 0x00, 0x40, 0x02, 0x00, 0x00, 0xef, 0x63, 0x8a, 0x7f, 0x4c, 0x67, 0xea, 0xc4, 0x81, 0x8c, 0x8f, 0x99, 
	0x59, 0x81, 0x7f, 0xa0, 0x3f, 0x81, 0x69, 0xda, 0x96, 0x81, 0x4d, 0x6f, 0x4d, 0x81, 0x99, 0x7c, 0x49, 0x81, 0x7f, 0x4d, 
	0x44, 0xca, 0x9e, 0xc5, 0x1f, 0xc5, 0x37, 0x57, 0xb2, 0x9b, 0xd8, 0x0b, 0xf6, 0x05, 0x1e, 0x05, 0x7f, 0xc9, 0xf0, 0xb1, 
	0x62, 0xf5, 0x28, 0xc3, 0x36, 0xb0, 0xc3, 0xa9, 0x81, 0x02, 0xc5, 0x91, 0x7f, 0x10, 0xc8, 0x4f, 0x64, 0x74, 0xbd, 0xbd, 
	0xd7, 0x81, 0xb8, 0xca, 0x52, 0x00, 0x17, 0xa0, 0x68, 0x29, 0x7f, 0xce, 0x81, 0x94, 0x6e, 0x43, 0x6a, 0xef, 0x81, 0x5d, 
	0x61, 0xfe, 0x7b, 0x7f, 0x30, 0xa3, 0x62, 0x1d, 0xbb, 0xee, 0x51, 0xb0, 0xa7, 0x1d, 0x8d, 0xf1, 0x03, 0xdf, 0x19, 0x26, 
	0x61, 0xe9, 0xd4, 0xee, 0x58, 0xc2, 0x81, 0x87, 0xeb, 0x06, 0xd1, 0xa4, 0x92, 0xc8, 0xa6, 0x9c, 0x16, 0x51, 0xd4, 0x60, 
	0xf2, 0x74, 0x81, 0xcf, 0xf4, 0xf3, 0x81, 0xab, 0x7f, 0x2f, 0xb6, 0xef, 0xd5, 0x20, 0x56, 0x81, 0xb1, 0x8f, 0x40, 0x62, 
	0x5e, 0x28, 0xb1, 0x5d, 0x3f, 0x53, 0x4b, 0x23, 0x63, 0xb3, 0x81, 0x28, 0xb1, 0xfd, 0x3f, 0xd9, 0xac, 0x0a, 0xbb, 0xbb, 
	0xf9, 0x92, 0xbe, 0x7f, 0x68, 0x81, 0xe6, 0xbe, 0x4c, 0x11, 0x0d, 0x16, 0x81, 0x81, 0xb4, 0x81, 0xeb, 0x81, 0xe0, 0x9d, 
	0x5c, 0x4e, 0xeb, 0x3c, 0x1e, 0x00, 0x9d, 0x05, 0x22, 0xdb, 0xec, 0x81, 0x39, 0x9a, 0x12, 0x81, 0x58, 0x99, 0x56, 0xfe, 
	0xda, 0xdf, 0x2f, 0x2a, 0xe6, 0xe7, 0xdc, 0x1b, 0x1e, 0xd1, 0x1a, 0x04, 0x18, 0xc5, 0x14, 0x7f, 0x10, 0x81, 0x58, 0x6a, 
	0x9f, 0x81, 0xb3, 0x81, 0xa1, 0x05, 0x34, 0x3d, 0x05, 0x2e, 0xb3, 0xc2, 0x19, 0x03, 0x14, 0xfd, 0xf3, 0xf6, 0xdc, 0xb7, 
	0xbe, 0x26, 0x81, 0xbf, 0x50, 0xde, 0x01, 0x42, 0x79, 0x14, 0xeb, 0xe1, 0xe8, 0xcb, 0xf0, 0xd9, 0x4e, 0x08, 0xb5, 0xd4, 
	0xe3, 0xb6, 0x62, 0xec, 0xc5, 0xb4, 0x09, 0x0a, 0xfd, 0xf4, 0x3c, 0x1f, 0x0d, 0x8c, 0x3a, 0xd8, 0x3e, 0xcf, 0x57, 0x19, 
	0x1c, 0xc2, 0x43, 0x0e, 0xce, 0xeb, 0x81, 0xc6, 0x1c, 0xf4, 0xcb, 0x28, 0x20, 0xf6, 0xc0, 0xc5, 0x52, 0xcf, 0x87, 0xdf, 
	0xa0, 0x18, 0xcf, 0xd0, 0xd8, 0x15, 0xa4, 0x0c, 0x54, 0x0f, 0xb8, 0x0f, 0x7f, 0x08, 0xb7, 0xba, 0xcc, 0xa8, 0xdc, 0xc3, 
	0x4b, 0x17, 0xfc, 0xfd, 0x7f, 0x09, 0x38, 0x09, 0xcc, 0x04, 0x18, 0x19, 0x43, 0xfd, 0xc4, 0x0a, 0x42, 0x38, 0xfa, 0xe2, 
	0xea, 0xe9, 0xb3, 0xf9, 0x9a, 0xfd, 0x79, 0x84, 0xe0, 0x47, 0xc2, 0xba, 0x2a, 0x81, 0xf3, 0x11, 0x32, 0xa4, 0xc1, 0xdf, 
	0x4b, 0x3d, 0x0e, 0x81, 0x82, 0xa6, 0xc5, 0x9e, 0xd7, 0xad, 0xb3, 0xa4, 0x36, 0x44, 0x81, 0x1f, 0x57, 0x2e, 0x0d, 0xbc, 
	0xb1, 0xa6, 0x83, 0xdb, 0x35, 0x86, 0x52, 0x84, 0x43, 0xed, 0x4d, 0xfc, 0x0e, 0xa2, 0x7f, 0x7f, 0x7f, 0xab, 0xd8, 0x55, 
	0x54, 0xa1, 0x59, 0x0d, 0x3d, 0x81, 0xaf, 0x9e, 0x1d, 0x0a, 0x4a, 0xfd, 0x81, 0x2b, 0x27, 0x01, 0x81, 0xdf, 0xe7, 0x56, 
	0x78, 0xe8, 0x81, 0x81, 0x7f, 0x81, 0x1d, 0x2b, 0x17, 0xc2, 0xbb, 0xc0, 0xb6, 0xfd, 0x91, 0x81, 0x6e, 0x7f, 0xbe, 0x4c, 
	0x08, 0x7f, 0xee, 0x81, 0x92, 0xa6, 0xca, 0xd8, 0x43, 0x03, 0x3f, 0xae, 0xff, 0xd0, 0x59, 0xda, 0xf0, 0xa1, 0x7e, 0x51, 
	0x7e, 0xdf, 0x8c, 0x76, 0x7f, 0xbb, 0x79, 0x0a, 0xee, 0x98, 0x72, 0xd3, 0x13, 0xc8, 0x7f, 0xe0, 0x91, 0x0a, 0xc9, 0xcf, 
	0xd3, 0x84, 0x8e, 0x05, 0x7b, 0xea, 0xc9, 0xda, 0x72, 0x17, 0xe4, 0x9f, 0xaa, 0x32, 0x81, 0xc6, 0xc5, 0x0a, 0xab, 0xc2, 
	0x14, 0x52, 0xaf, 0x0f, 0x31, 0x7c, 0x1c, 0xb0, 0xe5, 0xe5, 0xbe, 0xc2, 0x11, 0x3f, 0x04, 0xcb, 0xf1, 0x36, 0x29, 0xf7, 
	0x11, 0x82, 0x60, 0x6b, 0x17, 0x22, 0x8e, 0x7f, 0x25, 0x2f, 0x50, 0x42, 0x7f, 0xaa, 0x8b, 0xc2, 0x81, 0xfc, 0x20, 0x81, 
	0xc0, 0xec, 0x08, 0x2e, 0xf9, 0x98, 0x81, 0x3e, 0x5c, 0xd5, 0xeb, 0xcf, 0x6f, 0xc1, 0x14, 0x01, 0xd5, 0xbc, 0x9e, 0xea, 
	0xf7, 0xb0, 0xac, 0x83, 0x92, 0x7d, 0xff, 0xff, 0x00, 0x00, 0x00, 0x09, 0x10, 0x00, 0x00, 0x00, 0x12, 0x00, 0x00, 0x00, 
	0x1c, 0x00, 0x00, 0x00, 0xdc, 0x00, 0x00, 0x00, 0x04, 0x00, 0x00, 0x00, 0x01, 0x00, 0x00, 0x00, 0x03, 0x00, 0x00, 0x00, 
	0x03, 0x00, 0x00, 0x00, 0x40, 0x00, 0x00, 0x00, 0xbf, 0x00, 0x00, 0x00, 0x6d, 0x6f, 0x64, 0x65, 0x6c, 0x2f, 0x62, 0x61, 
	0x74, 0x63, 0x68, 0x5f, 0x6e, 0x6f, 0x72, 0x6d, 0x61, 0x6c, 0x69, 0x7a, 0x61, 0x74, 0x69, 0x6f, 0x6e, 0x5f, 0x37, 0x2f, 
	0x46, 0x75, 0x73, 0x65, 0x64, 0x42, 0x61, 0x74, 0x63, 0x68, 0x4e, 0x6f, 0x72, 0x6d, 0x56, 0x33, 0x3b, 0x6d, 0x6f, 0x64, 
	0x65, 0x6c, 0x2f, 0x64, 0x65, 0x70, 0x74, 0x68, 0x77, 0x69, 0x73, 0x65, 0x5f, 0x63, 0x6f, 0x6e, 0x76, 0x32, 0x64, 0x5f, 
	0x33, 0x2f, 0x64, 0x65, 0x70, 0x74, 0x68, 0x77, 0x69, 0x73, 0x65, 0x3b, 0x6d, 0x6f, 0x64, 0x65, 0x6c, 0x2f, 0x64, 0x65, 
	0x70, 0x74, 0x68, 0x77, 0x69, 0x73, 0x65, 0x5f, 0x63, 0x6f, 0x6e, 0x76, 0x32, 0x64, 0x5f, 0x33, 0x2f, 0x42, 0x69, 0x61, 
	0x73, 0x41, 0x64, 0x64, 0x3b, 0x6d, 0x6f, 0x64, 0x65, 0x6c, 0x2f, 0x63, 0x6f, 0x6e, 0x76, 0x32, 0x64, 0x5f, 0x34, 0x2f, 
	0x43, 0x6f, 0x6e, 0x76, 0x32, 0x44, 0x3b, 0x6d, 0x6f, 0x64, 0x65, 0x6c, 0x2f, 0x64, 0x65, 0x70, 0x74, 0x68, 0x77, 0x69, 
	0x73, 0x65, 0x5f, 0x63, 0x6f, 0x6e, 0x76, 0x32, 0x64, 0x5f, 0x33, 0x2f, 0x42, 0x69, 0x61, 0x73, 0x41, 0x64, 0x64, 0x2f, 
	0x52, 0x65, 0x61, 0x64, 0x56, 0x61, 0x72, 0x69, 0x61, 0x62, 0x6c, 0x65, 0x4f, 0x70, 0x2f, 0x72, 0x65, 0x73, 0x6f, 0x75, 
	0x72, 0x63, 0x65, 0x00, 0x9a, 0x94, 0xff, 0xff, 0x0c, 0x00, 0x00, 0x00, 0x0c, 0x01, 0x00, 0x00, 0x03, 0x00, 0x00, 0x00, 
	0x40, 0x00, 0x00, 0x00, 0x3e, 0x71, 0x25, 0x3b, 0x1e, 0x7d, 0x49, 0x3b, 0xc9, 0xc2, 0xab, 0x3b, 0x21, 0xca, 0x42, 0x3b, 
	0xa3, 0x09, 0x30, 0x3b, 0x0a, 0xf4, 0xca, 0x3b, 0x02, 0x35, 0x98, 0x3b, 0xb6, 0x81, 0xb4, 0x3b, 0xc2, 0x3f, 0x76, 0x3b, 
	0x00, 0xeb, 0x8e, 0x3b, 0xd3, 0x21, 0x69, 0x3b, 0xb9, 0x74, 0x99, 0x3b, 0xd0, 0x5a, 0x8c, 0x3b, 0x72, 0x7d, 0x2e, 0x3c, 
	0x7e, 0xf6, 0x06, 0x3c, 0x4c, 0x97, 0x84, 0x3b, 0x05, 0x18, 0x87, 0x3b, 0x18, 0xa1, 0x85, 0x3b, 0x90, 0x1f, 0xd3, 0x3b, 
	0x5e, 0x8d, 0xbb, 0x3b, 0x49, 0x57, 0x99, 0x3b, 0x06, 0xbd, 0xa5, 0x3b, 0x4f, 0x7d, 0x62, 0x3b, 0x41, 0xbf, 0x8b, 0x3c, 
	0xb7, 0x14, 0x84, 0x3b, 0xfb, 0xa3, 0x9a, 0x3b, 0x21, 0xd1, 0x57, 0x3b, 0x33, 0x8f, 0xad, 0x3b, 0xf2, 0x22, 0xab, 0x3b, 
	0xfc, 0xe5, 0x59, 0x3b, 0x1a, 0x81, 0x96, 0x3b, 0xcd, 0xeb, 0x57, 0x3c, 0x12, 0xb3, 0xb5, 0x3b, 0xf9, 0x25, 0xa1, 0x3b, 
	0x75, 0x64, 0xd8, 0x3b, 0xe7, 0x60, 0x18, 0x3c, 0xa1, 0x56, 0xce, 0x3b, 0x83, 0xa9, 0x8c, 0x3b, 0xb7, 0xf2, 0x9c, 0x3b, 
	0xf6, 0x2b, 0xc0, 0x3b, 0x5e, 0x98, 0x85, 0x3b, 0x4e, 0x07, 0xec, 0x3b, 0x68, 0x39, 0x4a, 0x3b, 0xd7, 0x69, 0x91, 0x3b, 
	0xcb, 0xb4, 0x9d, 0x3b, 0xfa, 0x4c, 0x30, 0x3b, 0xa7, 0xea, 0x90, 0x3b, 0xdb, 0x30, 0x9f, 0x3b, 0xb3, 0x5c, 0xc0, 0x3b, 
	0xb3, 0x67, 0x8e, 0x3b, 0x8c, 0xe8, 0x9d, 0x3b, 0x1f, 0x99, 0x04, 0x3c, 0x8e, 0x15, 0xa7, 0x3b, 0x28, 0x76, 0xd1, 0x3b, 
	0xf1, 0x7e, 0xa9, 0x3b, 0x36, 0x64, 0x7d, 0x3b, 0xae, 0xde, 0x53, 0x3b, 0x4b, 0x28, 0x0d, 0x3c, 0xc3, 0xb8, 0x82, 0x3b, 
	0x69, 0x4f, 0x6c, 0x3b, 0xa0, 0x31, 0x9c, 0x3b, 0xbd, 0x46, 0x9a, 0x3b, 0x94, 0xb4, 0xb1, 0x3b, 0x7b, 0x8d, 0x84, 0x3b, 
	0x40, 0x00, 0x00, 0x00, 0x00, 0x00, 0x00, 0x00, 0x00, 0x00, 0x00, 0x00, 0x00, 0x00, 0x00, 0x00, 0x00, 0x00, 0x00, 0x00, 
	0x00, 0x00, 0x00, 0x00, 0x00, 0x00, 0x00, 0x00, 0x00, 0x00, 0x00, 0x00, 0x00, 0x00, 0x00, 0x00, 0x00, 0x00, 0x00, 0x00, 
	0x00, 0x00, 0x00, 0x00, 0x00, 0x00, 0x00, 0x00, 0x00, 0x00, 0x00, 0x00, 0x00, 0x00, 0x00, 0x00, 0x00, 0x00, 0x00, 0x00, 
	0x00, 0x00, 0x00, 0x00, 0x00, 0x00, 0x00, 0x00, 0x00, 0x00, 0x00, 0x00, 0x00, 0x00, 0x00, 0x00, 0x00, 0x00, 0x00, 0x00, 
	0x00, 0x00, 0x00, 0x00, 0x00, 0x00, 0x00, 0x00, 0x00, 0x00, 0x00, 0x00, 0x00, 0x00, 0x00, 0x00, 0x00, 0x00, 0x00, 0x00, 
	0x00, 0x00, 0x00, 0x00, 0x00, 0x00, 0x00, 0x00, 0x00, 0x00, 0x00, 0x00, 0x00, 0x00, 0x00, 0x00, 0x00, 0x00, 0x00, 0x00, 
	0x00, 0x00, 0x00, 0x00, 0x00, 0x00, 0x00, 0x00, 0x00, 0x00, 0x00, 0x00, 0x00, 0x00, 0x00, 0x00, 0x00, 0x00, 0x00, 0x00, 
	0x00, 0x00, 0x00, 0x00, 0x00, 0x00, 0x00, 0x00, 0x00, 0x00, 0x00, 0x00, 0x00, 0x00, 0x00, 0x00, 0x00, 0x00, 0x00, 0x00, 
	0x00, 0x00, 0x00, 0x00, 0x00, 0x00, 0x00, 0x00, 0x00, 0x00, 0x00, 0x00, 0x00, 0x00, 0x00, 0x00, 0x00, 0x00, 0x00, 0x00, 
	0x00, 0x00, 0x00, 0x00, 0x00, 0x00, 0x00, 0x00, 0x00, 0x00, 0x00, 0x00, 0x00, 0x00, 0x00, 0x00, 0x00, 0x00, 0x00, 0x00, 
	0x00, 0x00, 0x00, 0x00, 0x00, 0x00, 0x00, 0x00, 0x00, 0x00, 0x00, 0x00, 0x00, 0x00, 0x00, 0x00, 0x00, 0x00, 0x00, 0x00, 
	0x00, 0x00, 0x00, 0x00, 0x00, 0x00, 0x00, 0x00, 0x00, 0x00, 0x00, 0x00, 0x00, 0x00, 0x00, 0x00, 0x00, 0x00, 0x00, 0x00, 
	0x00, 0x00, 0x00, 0x00, 0x00, 0x00, 0x00, 0x00, 0x00, 0x00, 0x00, 0x00, 0x00, 0x00, 0x00, 0x00, 0x00, 0x00, 0x00, 0x00, 
	0x00, 0x00, 0x00, 0x00, 0x00, 0x00, 0x00, 0x00, 0x00, 0x00, 0x00, 0x00, 0x00, 0x00, 0x00, 0x00, 0x00, 0x00, 0x00, 0x00, 
	0x00, 0x00, 0x00, 0x00, 0x00, 0x00, 0x00, 0x00, 0x00, 0x00, 0x00, 0x00, 0x00, 0x00, 0x00, 0x00, 0x00, 0x00, 0x00, 0x00, 
	0x00, 0x00, 0x00, 0x00, 0x00, 0x00, 0x00, 0x00, 0x00, 0x00, 0x00, 0x00, 0x00, 0x00, 0x00, 0x00, 0x00, 0x00, 0x00, 0x00, 
	0x00, 0x00, 0x00, 0x00, 0x00, 0x00, 0x00, 0x00, 0x00, 0x00, 0x00, 0x00, 0x00, 0x00, 0x00, 0x00, 0x00, 0x00, 0x00, 0x00, 
	0x00, 0x00, 0x00, 0x00, 0x00, 0x00, 0x00, 0x00, 0x00, 0x00, 0x00, 0x00, 0x00, 0x00, 0x00, 0x00, 0x00, 0x00, 0x00, 0x00, 
	0x00, 0x00, 0x00, 0x00, 0x00, 0x00, 0x00, 0x00, 0x00, 0x00, 0x00, 0x00, 0x00, 0x00, 0x00, 0x00, 0x00, 0x00, 0x00, 0x00, 
	0x00, 0x00, 0x00, 0x00, 0x00, 0x00, 0x00, 0x00, 0x00, 0x00, 0x00, 0x00, 0x00, 0x00, 0x00, 0x00, 0x00, 0x00, 0x00, 0x00, 
	0x00, 0x00, 0x00, 0x00, 0x00, 0x00, 0x00, 0x00, 0x00, 0x00, 0x00, 0x00, 0x00, 0x00, 0x00, 0x00, 0x00, 0x00, 0x00, 0x00, 
	0x00, 0x00, 0x00, 0x00, 0x00, 0x00, 0x00, 0x00, 0x00, 0x00, 0x00, 0x00, 0x00, 0x00, 0x00, 0x00, 0x00, 0x00, 0x00, 0x00, 
	0x00, 0x00, 0x00, 0x00, 0x00, 0x00, 0x00, 0x00, 0x00, 0x00, 0x00, 0x00, 0x00, 0x00, 0x00, 0x00, 0x00, 0x00, 0x00, 0x00, 
	0x00, 0x00, 0x00, 0x00, 0x00, 0x00, 0x00, 0x00, 0x00, 0x00, 0x00, 0x00, 0x00, 0x00, 0x00, 0x00, 0x00, 0x00, 0x00, 0x00, 
	0x00, 0x00, 0x00, 0x00, 0x00, 0x00, 0x00, 0x00, 0x00, 0x00, 0x00, 0x00, 0x00, 0x00, 0x00, 0x00, 0x00, 0x00, 0x00, 0x00, 
	0x00, 0x00, 0x00, 0x00, 0x00, 0x00, 0x00, 0x00, 0x00, 0x00, 0x00, 0x00, 0x00, 0x00, 0x00, 0x00, 0xbe, 0x81, 0xff, 0xff, 
	0x04, 0x00, 0x00, 0x00, 0x00, 0x01, 0x00, 0x00, 0x35, 0xfd, 0xff, 0xff, 0x08, 0xf7, 0xff, 0xff, 0x8e, 0x00, 0x00, 0x00, 
	0xbd, 0xf9, 0xff, 0xff, 0xcc, 0xf8, 0xff, 0xff, 0xb2, 0x0e, 0x00, 0x00, 0x54, 0xf8, 0xff, 0xff, 0x57, 0xfe, 0xff, 0xff, 
	0xc5, 0xf4, 0xff, 0xff, 0x16, 0x0c, 0x00, 0x00, 0x23, 0xfe, 0xff, 0xff, 0x54, 0x04, 0x00, 0x00, 0xb0, 0x08, 0x00, 0x00, 
	0xdc, 0xfa, 0xff, 0xff, 0xf2, 0x01, 0x00, 0x00, 0x24, 0xff, 0xff, 0xff, 0xda, 0xf4, 0xff, 0xff, 0x1c, 0xf9, 0xff, 0xff, 
	0x3c, 0x08, 0x00, 0x00, 0x98, 0xf9, 0xff, 0xff, 0x73, 0x04, 0x00, 0x00, 0x23, 0x08, 0x00, 0x00, 0xba, 0x0a, 0x00, 0x00, 
	0xc9, 0x02, 0x00, 0x00, 0xae, 0x0a, 0x00, 0x00, 0x3c, 0xf7, 0xff, 0xff, 0x6e, 0x02, 0x00, 0x00, 0x8f, 0x04, 0x00, 0x00, 
	0x65, 0x06, 0x00, 0x00, 0xd3, 0xf3, 0xff, 0xff, 0x89, 0x03, 0x00, 0x00, 0xf1, 0x05, 0x00, 0x00, 0xc3, 0x04, 0x00, 0x00, 
	0x3b, 0x05, 0x00, 0x00, 0x32, 0x03, 0x00, 0x00, 0xc3, 0x08, 0x00, 0x00, 0x2b, 0xf9, 0xff, 0xff, 0x0c, 0xfd, 0xff, 0xff, 
	0xc7, 0x03, 0x00, 0x00, 0x35, 0x0c, 0x00, 0x00, 0xa2, 0xf9, 0xff, 0xff, 0x31, 0xef, 0xff, 0xff, 0x33, 0xfe, 0xff, 0xff, 
	0x12, 0xf5, 0xff, 0xff, 0xd8, 0xf5, 0xff, 0xff, 0x8e, 0xf3, 0xff, 0xff, 0xd4, 0xf3, 0xff, 0xff, 0x79, 0x0a, 0x00, 0x00, 
	0x8a, 0x04, 0x00, 0x00, 0x67, 0xfb, 0xff, 0xff, 0xd9, 0x06, 0x00, 0x00, 0x95, 0x07, 0x00, 0x00, 0xcb, 0x07, 0x00, 0x00, 
	0x37, 0xf8, 0xff, 0xff, 0x92, 0xfd, 0xff, 0xff, 0x79, 0xf5, 0xff, 0xff, 0x46, 0xfc, 0xff, 0xff, 0x35, 0xfc, 0xff, 0xff, 
	0x1a, 0x03, 0x00, 0x00, 0xb1, 0x02, 0x00, 0x00, 0xf5, 0xfe, 0xff, 0xff, 0x3e, 0xf5, 0xff, 0xff, 0x1f, 0x0e, 0x00, 0x00, 
	0x09, 0x01, 0x00, 0x00, 0xa6, 0x82, 0xff, 0xff, 0x00, 0x00, 0x00, 0x02, 0x10, 0x00, 0x00, 0x00, 0x11, 0x00, 0x00, 0x00, 
	0x10, 0x00, 0x00, 0x00, 0xc4, 0x00, 0x00, 0x00, 0x01, 0x00, 0x00, 0x00, 0x40, 0x00, 0x00, 0x00, 0xb1, 0x00, 0x00, 0x00, 
	0x6d, 0x6f, 0x64, 0x65, 0x6c, 0x2f, 0x72, 0x65, 0x5f, 0x6c, 0x75, 0x5f, 0x36, 0x2f, 0x52, 0x65, 0x6c, 0x75, 0x3b, 0x6d, 
	0x6f, 0x64, 0x65, 0x6c, 0x2f, 0x62, 0x61, 0x74, 0x63, 0x68, 0x5f, 0x6e, 0x6f, 0x72, 0x6d, 0x61, 0x6c, 0x69, 0x7a, 0x61, 
	0x74, 0x69, 0x6f, 0x6e, 0x5f, 0x36, 0x2f, 0x46, 0x75, 0x73, 0x65, 0x64, 0x42, 0x61, 0x74, 0x63, 0x68, 0x4e, 0x6f, 0x72, 
	0x6d, 0x56, 0x33, 0x3b, 0x6d, 0x6f, 0x64, 0x65, 0x6c, 0x2f, 0x63, 0x6f, 0x6e, 0x76, 0x32, 0x64, 0x5f, 0x33, 0x2f, 0x42, 
	0x69, 0x61, 0x73, 0x41, 0x64, 0x64, 0x2f, 0x52, 0x65, 0x61, 0x64, 0x56, 0x61, 0x72, 0x69, 0x61, 0x62, 0x6c, 0x65, 0x4f, 
	0x70, 0x2f, 0x72, 0x65, 0x73, 0x6f, 0x75, 0x72, 0x63, 0x65, 0x3b, 0x6d, 0x6f, 0x64, 0x65, 0x6c, 0x2f, 0x63, 0x6f, 0x6e, 
	0x76, 0x32, 0x64, 0x5f, 0x33, 0x2f, 0x42, 0x69, 0x61, 0x73, 0x41, 0x64, 0x64, 0x3b, 0x6d, 0x6f, 0x64, 0x65, 0x6c, 0x2f, 
	0x63, 0x6f, 0x6e, 0x76, 0x32, 0x64, 0x5f, 0x34, 0x2f, 0x43, 0x6f, 0x6e, 0x76, 0x32, 0x44, 0x3b, 0x6d, 0x6f, 0x64, 0x65, 
	0x6c, 0x2f, 0x63, 0x6f, 0x6e, 0x76, 0x32, 0x64, 0x5f, 0x33, 0x2f, 0x43, 0x6f, 0x6e, 0x76, 0x32, 0x44, 0x00, 0x00, 0x00, 
	0x2c, 0x87, 0xff, 0xff, 0x08, 0x00, 0x00, 0x00, 0x08, 0x01, 0x00, 0x00, 0x40, 0x00, 0x00, 0x00, 0x86, 0x73, 0x62, 0x39, 
	0x58, 0x6c, 0x7b, 0x39, 0x54, 0x26, 0xd2, 0x39, 0x1a, 0xb0, 0x55, 0x39, 0xf7, 0x7d, 0x5b, 0x39, 0x0e, 0xde, 0x62, 0x39, 
	0x3f, 0xe5, 0xc3, 0x39, 0x7a, 0xdb, 0xba, 0x39, 0x04, 0xdc, 0x88, 0x39, 0x99, 0xa5, 0x98, 0x39, 0xc5, 0x75, 0xa1, 0x39, 
	0x8f, 0x54, 0xc0, 0x39, 0xaf, 0x5e, 0xc6, 0x39, 0xff, 0xfe, 0x58, 0x39, 0x4c, 0x13, 0x7d, 0x39, 0xf0, 0xca, 0xb2, 0x39, 
	0x5a, 0x6f, 0x82, 0x39, 0x2f, 0x4a, 0x66, 0x39, 0x4c, 0x80, 0x9a, 0x39, 0x6a, 0x2e, 0xb0, 0x39, 0x4e, 0xf3, 0xc6, 0x39, 
	0xfd, 0xf2, 0x8f, 0x39, 0xf1, 0x05, 0xa9, 0x39, 0xcb, 0x46, 0x84, 0x39, 0xfc, 0xf1, 0xc0, 0x39, 0x36, 0x77, 0x68, 0x39, 
	0x92, 0x79, 0xa8, 0x39, 0xb3, 0x40, 0x61, 0x39, 0x23, 0xc0, 0x63, 0x39, 0xa6, 0x97, 0x81, 0x39, 0x89, 0xd0, 0xb4, 0x39, 
	0x46, 0x0f, 0x4a, 0x39, 0x36, 0x37, 0x8c, 0x39, 0x74, 0xa2, 0xb4, 0x39, 0x60, 0xe3, 0x98, 0x39, 0x1d, 0x43, 0x4e, 0x39, 
	0x33, 0x42, 0x5c, 0x39, 0x28, 0x97, 0xa7, 0x39, 0x81, 0x90, 0x6e, 0x39, 0x63, 0xaf, 0x7c, 0x39, 0x4e, 0x86, 0xc2, 0x39, 
	0x39, 0xe2, 0x78, 0x39, 0x5b, 0x6e, 0x94, 0x39, 0xb3, 0x62, 0x6d, 0x39, 0x66, 0x3e, 0x5e, 0x39, 0xb3, 0x6b, 0x6e, 0x39, 
	0xee, 0x55, 0x50, 0x39, 0xc4, 0x5d, 0xd5, 0x39, 0xd2, 0x44, 0xb0, 0x39, 0x79, 0xcb, 0x9d, 0x39, 0x46, 0x6d, 0xbe, 0x39, 
	0x5f, 0x86, 0x8c, 0x39, 0xec, 0x5f, 0x97, 0x39, 0xbd, 0xd1, 0x37, 0x39, 0x51, 0xf9, 0x5c, 0x39, 0xff, 0xd2, 0x5c, 0x39, 
	0xc0, 0x61, 0x53, 0x39, 0x57, 0x49, 0xa7, 0x39, 0x5f, 0x39, 0xd0, 0x39, 0x0e, 0x80, 0xb9, 0x39, 0xef, 0xce, 0xa2, 0x39, 
	0x9b, 0x2d, 0x58, 0x39, 0xe0, 0xc3, 0x91, 0x39, 0x54, 0x31, 0xe4, 0x39, 0x40, 0x00, 0x00, 0x00, 0x00, 0x00, 0x00, 0x00, 
	0x00, 0x00, 0x00, 0x00, 0x00, 0x00, 0x00, 0x00, 0x00, 0x00, 0x00, 0x00, 0x00, 0x00, 0x00, 0x00, 0x00, 0x00, 0x00, 0x00, 
	0x00, 0x00, 0x00, 0x00, 0x00, 0x00, 0x00, 0x00, 0x00, 0x00, 0x00, 0x00, 0x00, 0x00, 0x00, 0x00, 0x00, 0x00, 0x00, 0x00, 
	0x00, 0x00, 0x00, 0x00, 0x00, 0x00, 0x00, 0x00, 0x00, 0x00, 0x00, 0x00, 0x00, 0x00, 0x00, 0x00, 0x00, 0x00, 0x00, 0x00, 
	0x00, 0x00, 0x00, 0x00, 0x00, 0x00, 0x00, 0x00, 0x00, 0x00, 0x00, 0x00, 0x00, 0x00, 0x00, 0x00, 0x00, 0x00, 0x00, 0x00, 
	0x00, 0x00, 0x00, 0x00, 0x00, 0x00, 0x00, 0x00, 0x00, 0x00, 0x00, 0x00, 0x00, 0x00, 0x00, 0x00, 0x00, 0x00, 0x00, 0x00, 
	0x00, 0x00, 0x00, 0x00, 0x00, 0x00, 0x00, 0x00, 0x00, 0x00, 0x00, 0x00, 0x00, 0x00, 0x00, 0x00, 0x00, 0x00, 0x00, 0x00, 
	0x00, 0x00, 0x00, 0x00, 0x00, 0x00, 0x00, 0x00, 0x00, 0x00, 0x00, 0x00, 0x00, 0x00, 0x00, 0x00, 0x00, 0x00, 0x00, 0x00, 
	0x00, 0x00, 0x00, 0x00, 0x00, 0x00, 0x00, 0x00, 0x00, 0x00, 0x00, 0x00, 0x00, 0x00, 0x00, 0x00, 0x00, 0x00, 0x00, 0x00, 
	0x00, 0x00, 0x00, 0x00, 0x00, 0x00, 0x00, 0x00, 0x00, 0x00, 0x00, 0x00, 0x00, 0x00, 0x00, 0x00, 0x00, 0x00, 0x00, 0x00, 
	0x00, 0x00, 0x00, 0x00, 0x00, 0x00, 0x00, 0x00, 0x00, 0x00, 0x00, 0x00, 0x00, 0x00, 0x00, 0x00, 0x00, 0x00, 0x00, 0x00, 
	0x00, 0x00, 0x00, 0x00, 0x00, 0x00, 0x00, 0x00, 0x00, 0x00, 0x00, 0x00, 0x00, 0x00, 0x00, 0x00, 0x00, 0x00, 0x00, 0x00, 
	0x00, 0x00, 0x00, 0x00, 0x00, 0x00, 0x00, 0x00, 0x00, 0x00, 0x00, 0x00, 0x00, 0x00, 0x00, 0x00, 0x00, 0x00, 0x00, 0x00, 
	0x00, 0x00, 0x00, 0x00, 0x00, 0x00, 0x00, 0x00, 0x00, 0x00, 0x00, 0x00, 0x00, 0x00, 0x00, 0x00, 0x00, 0x00, 0x00, 0x00, 
	0x00, 0x00, 0x00, 0x00, 0x00, 0x00, 0x00, 0x00, 0x00, 0x00, 0x00, 0x00, 0x00, 0x00, 0x00, 0x00, 0x00, 0x00, 0x00, 0x00, 
	0x00, 0x00, 0x00, 0x00, 0x00, 0x00, 0x00, 0x00, 0x00, 0x00, 0x00, 0x00, 0x00, 0x00, 0x00, 0x00, 0x00, 0x00, 0x00, 0x00, 
	0x00, 0x00, 0x00, 0x00, 0x00, 0x00, 0x00, 0x00, 0x00, 0x00, 0x00, 0x00, 0x00, 0x00, 0x00, 0x00, 0x00, 0x00, 0x00, 0x00, 
	0x00, 0x00, 0x00, 0x00, 0x00, 0x00, 0x00, 0x00, 0x00, 0x00, 0x00, 0x00, 0x00, 0x00, 0x00, 0x00, 0x00, 0x00, 0x00, 0x00, 
	0x00, 0x00, 0x00, 0x00, 0x00, 0x00, 0x00, 0x00, 0x00, 0x00, 0x00, 0x00, 0x00, 0x00, 0x00, 0x00, 0x00, 0x00, 0x00, 0x00, 
	0x00, 0x00, 0x00, 0x00, 0x00, 0x00, 0x00, 0x00, 0x00, 0x00, 0x00, 0x00, 0x00, 0x00, 0x00, 0x00, 0x00, 0x00, 0x00, 0x00, 
	0x00, 0x00, 0x00, 0x00, 0x00, 0x00, 0x00, 0x00, 0x00, 0x00, 0x00, 0x00, 0x00, 0x00, 0x00, 0x00, 0x00, 0x00, 0x00, 0x00, 
	0x00, 0x00, 0x00, 0x00, 0x00, 0x00, 0x00, 0x00, 0x00, 0x00, 0x00, 0x00, 0x00, 0x00, 0x00, 0x00, 0x00, 0x00, 0x00, 0x00, 
	0x00, 0x00, 0x00, 0x00, 0x00, 0x00, 0x00, 0x00, 0x00, 0x00, 0x00, 0x00, 0x00, 0x00, 0x00, 0x00, 0x00, 0x00, 0x00, 0x00, 
	0x00, 0x00, 0x00, 0x00, 0x00, 0x00, 0x00, 0x00, 0x00, 0x00, 0x00, 0x00, 0x00, 0x00, 0x00, 0x00, 0x00, 0x00, 0x00, 0x00, 
	0x00, 0x00, 0x00, 0x00, 0x00, 0x00, 0x00, 0x00, 0x00, 0x00, 0x00, 0x00, 0x00, 0x00, 0x00, 0x00, 0x00, 0x00, 0x00, 0x00, 
	0x00, 0x00, 0x00, 0x00, 0x00, 0x00, 0x00, 0x00, 0x00, 0x00, 0x00, 0x00, 0x00, 0x00, 0x00, 0x00, 0x00, 0x00, 0x00, 0x00, 
	0x00, 0x00, 0x00, 0x00, 0x00, 0x00, 0x00, 0x00, 0xb6, 0x86, 0xff, 0xff, 0x04, 0x00, 0x00, 0x00, 0x00, 0x10, 0x00, 0x00, 
	0xc9, 0xe1, 0xbd, 0x9c, 0x68, 0x8c, 0x19, 0x42, 0x2a, 0x72, 0x52, 0x76, 0x5e, 0x77, 0x9e, 0x6e, 0x03, 0xc9, 0x04, 0xcb, 
	0x77, 0x61, 0x06, 0x40, 0x3f, 0x91, 0x3e, 0x2d, 0xd2, 0x63, 0xb5, 0x44, 0x33, 0xda, 0xeb, 0xfa, 0xfa, 0x00, 0x51, 0xd3, 
	0x9c, 0x9e, 0xd3, 0xa1, 0xac, 0xf4, 0x7f, 0x5a, 0x28, 0xf7, 0xb5, 0xed, 0xb1, 0xec, 0x23, 0xe6, 0xe7, 0xfd, 0xe2, 0xef, 
	0xc2, 0x47, 0xe5, 0xe5, 0xe4, 0xdd, 0xf7, 0x2e, 0x3b, 0x4a, 0xb7, 0xde, 0x03, 0xfb, 0x18, 0x45, 0x1e, 0x3f, 0xeb, 0x69, 
	0x3a, 0xae, 0xdb, 0xe5, 0x69, 0x6f, 0x96, 0xc9, 0xa3, 0x3a, 0x6f, 0xf4, 0x38, 0x03, 0x0e, 0xcf, 0x3d, 0x33, 0x38, 0xf1, 
	0x13, 0xfb, 0xf2, 0xe1, 0xc0, 0x1a, 0x42, 0x96, 0x1a, 0xe4, 0x2d, 0x5c, 0xbc, 0x0f, 0xd5, 0xc4, 0x9d, 0x07, 0x7f, 0x31, 
	0x51, 0x2f, 0x4f, 0x55, 0x56, 0xaa, 0xf4, 0x4b, 0x0b, 0xd2, 0x28, 0xa2, 0xff, 0x03, 0xd7, 0xb3, 0x34, 0x45, 0x27, 0x46, 
